{
  "version": "1.0",
  "truncation": null,
  "padding": null,
  "added_tokens": [
    {
      "id": 0,
      "content": "<|bos|>",
      "single_word": false,
      "lstrip": false,
      "rstrip": false,
      "normalized": false,
      "special": true
    },
    {
      "id": 1,
      "content": "<|eos|>",
      "single_word": false,
      "lstrip": false,
      "rstrip": false,
      "normalized": false,
      "special": true
    },
    {
      "id": 2,
      "content": "<|system|>",
      "single_word": false,
      "lstrip": false,
      "rstrip": false,
      "normalized": false,
      "special": true
    },
    {
      "id": 3,
      "content": "<|user|>",
      "single_word": false,
      "lstrip": false,
      "rstrip": false,
      "normalized": false,
      "special": true
    },
    {
      "id": 4,
      "content": "<|assistant|>",
      "single_word": false,
      "lstrip": false,
      "rstrip": false,
      "normalized": false,
      "special": true
    },
    {
      "id": 5,
      "content": "<|pad|>",
      "single_word": false,
      "lstrip": false,
      "rstrip": false,
      "normalized": false,
      "special": true
    }
  ],
  "normalizer": null,
  "pre_tokenizer": {
    "type": "ByteLevel",
    "add_prefix_space": true,
    "trim_offsets": true,
    "use_regex": true
  },
  "post_processor": null,
  "decoder": {
    "type": "ByteLevel",
    "add_prefix_space": true,
    "trim_offsets": true,
    "use_regex": true
  },
  "model": {
    "type": "BPE",
    "dropout": null,
    "unk_token": null,
    "continuing_subword_prefix": null,
    "end_of_word_suffix": null,
    "fuse_unk": false,
    "byte_fallback": false,
    "ignore_merges": false,
    "vocab": {
      "<|bos|>": 0,
      "<|eos|>": 1,
      "<|system|>": 2,
      "<|user|>": 3,
      "<|assistant|>": 4,
      "<|pad|>": 5,
      "!": 6,
      "\"": 7,
      "$": 8,
      "%": 9,
      "&": 10,
      "'": 11,
      "(": 12,
      ")": 13,
      "*": 14,
      ",": 15,
      "-": 16,
      ".": 17,
      "/": 18,
      "0": 19,
      "1": 20,
      "2": 21,
      "3": 22,
      "4": 23,
      "5": 24,
      "6": 25,
      "7": 26,
      "8": 27,
      "9": 28,
      ":": 29,
      ";": 30,
      "=": 31,
      "?": 32,
      "@": 33,
      "A": 34,
      "B": 35,
      "C": 36,
      "D": 37,
      "E": 38,
      "F": 39,
      "G": 40,
      "H": 41,
      "I": 42,
      "J": 43,
      "K": 44,
      "L": 45,
      "M": 46,
      "N": 47,
      "O": 48,
      "P": 49,
      "Q": 50,
      "R": 51,
      "S": 52,
      "T": 53,
      "U": 54,
      "V": 55,
      "W": 56,
      "Y": 57,
      "Z": 58,
      "_": 59,
      "a": 60,
      "b": 61,
      "c": 62,
      "d": 63,
      "e": 64,
      "f": 65,
      "g": 66,
      "h": 67,
      "i": 68,
      "j": 69,
      "k": 70,
      "l": 71,
      "m": 72,
      "n": 73,
      "o": 74,
      "p": 75,
      "q": 76,
      "r": 77,
      "s": 78,
      "t": 79,
      "u": 80,
      "v": 81,
      "w": 82,
      "x": 83,
      "y": 84,
      "z": 85,
      "¢": 86,
      "¦": 87,
      "·": 88,
      "Â": 89,
      "â": 90,
      "ï": 91,
      "Ċ": 92,
      "Ġ": 93,
      "Ģ": 94,
      "Ĥ": 95,
      "ĵ": 96,
      "Ķ": 97,
      "ĺ": 98,
      "Ļ": 99,
      "ľ": 100,
      "Ŀ": 101,
      "ŀ": 102,
      "Ń": 103,
      "Ġt": 104,
      "Ġa": 105,
      "in": 106,
      "__": 107,
      "Ġs": 108,
      "le": 109,
      "he": 110,
      "re": 111,
      "ou": 112,
      "Ġo": 113,
      "ep": 114,
      "at": 115,
      "er": 116,
      "leep": 117,
      "Ġb": 118,
      "Ġw": 119,
      "ing": 120,
      "or": 121,
      "Ġc": 122,
      "____": 123,
      "nd": 124,
      "Ġm": 125,
      "Ġd": 126,
      "Ġthe": 127,
      "on": 128,
      "al": 129,
      "es": 130,
      "Ġto": 131,
      "Ġy": 132,
      "is": 133,
      "Ġsleep": 134,
      "Ġyou": 135,
      "Ġf": 136,
      "en": 137,
      "Ġand": 138,
      "Ġp": 139,
      "it": 140,
      "an": 141,
      "Ġ.": 142,
      "ed": 143,
      "Ġof": 144,
      "Ġn": 145,
      "Ġin": 146,
      "ar": 147,
      "Ġh": 148,
      "om": 149,
      "Ġth": 150,
      "________": 151,
      "ic": 152,
      "âĢ": 153,
      "ve": 154,
      "Ġl": 155,
      "gh": 156,
      "ay": 157,
      "Ġbe": 158,
      "ly": 159,
      "Ġre": 160,
      "ion": 161,
      "Ġe": 162,
      "se": 163,
      "im": 164,
      "Ġyour": 165,
      "ĠS": 166,
      "ct": 167,
      "Ġor": 168,
      "igh": 169,
      "ow": 170,
      "st": 171,
      "ent": 172,
      "ight": 173,
      "ĠT": 174,
      "Ġg": 175,
      "ĠI": 176,
      "ke": 177,
      "ll": 178,
      "ro": 179,
      "Ġis": 180,
      "Ġcan": 181,
      "th": 182,
      "Ġas": 183,
      "Ġha": 184,
      "Ġhe": 185,
      "od": 186,
      "Ġu": 187,
      "Ġthat": 188,
      "et": 189,
      "id": 190,
      "Ġfor": 191,
      "ore": 192,
      "Ġst": 193,
      "ra": 194,
      "ur": 195,
      "ch": 196,
      "if": 197,
      "ot": 198,
      "ul": 199,
      "________________": 200,
      "Ġon": 201,
      "ple": 202,
      "Ġwh": 203,
      "ĠA": 204,
      "Ġare": 205,
      "as": 206,
      "our": 207,
      "ation": 208,
      "ake": 209,
      "ver": 210,
      "ĠSleep": 211,
      "ir": 212,
      "âĢĻ": 213,
      "Ġwe": 214,
      "ime": 215,
      "ss": 216,
      "Ġhave": 217,
      "ter": 218,
      "ĠH": 219,
      "ith": 220,
      "Ġal": 221,
      "Ġnight": 222,
      "ĠM": 223,
      "Ġ(": 224,
      "Ġle": 225,
      "Ġit": 226,
      "ld": 227,
      "Ġsu": 228,
      "her": 229,
      "Ġwith": 230,
      "ag": 231,
      "ce": 232,
      "ĠC": 233,
      "el": 234,
      "fe": 235,
      "ck": 236,
      "ut": 237,
      "ĠâĢ": 238,
      "eo": 239,
      "ps": 240,
      "eople": 241,
      "ble": 242,
      "ri": 243,
      "ĠD": 244,
      "ĠThe": 245,
      "lo": 246,
      "out": 247,
      "Ġat": 248,
      "Ġmay": 249,
      "Ġan": 250,
      "reat": 251,
      "alth": 252,
      "ers": 253,
      "ome": 254,
      "Ġ1": 255,
      "so": 256,
      "ts": 257,
      "Ġmore": 258,
      "Ġdis": 259,
      "Ġday": 260,
      "ĠY": 261,
      "ea": 262,
      "Ġhel": 263,
      "Ġpeople": 264,
      "ĠR": 265,
      "Ġdo": 266,
      "ive": 267,
      "qu": 268,
      "ess": 269,
      "uring": 270,
      "Ġsh": 271,
      "Ġpro": 272,
      "ort": 273,
      "au": 274,
      "Ġ2": 275,
      "ĠW": 276,
      "Ġne": 277,
      "Ġnot": 278,
      "ffe": 279,
      "ill": 280,
      "Ġch": 281,
      "art": 282,
      "ĠP": 283,
      "orm": 284,
      "Ġfe": 285,
      "Ġex": 286,
      "Ġad": 287,
      "ord": 288,
      "ni": 289,
      "Ġduring": 290,
      "ĠN": 291,
      "Ġr": 292,
      "Ġtime": 293,
      "Ġhelp": 294,
      "ment": 295,
      "all": 296,
      "Ġget": 297,
      "Ġwor": 298,
      "ak": 299,
      "ol": 300,
      "ine": 301,
      "Ġalso": 302,
      "ough": 303,
      "Ġbed": 304,
      "ity": 305,
      "Ġwho": 306,
      "ad": 307,
      "est": 308,
      "ical": 309,
      "pt": 310,
      "ther": 311,
      "Ġcon": 312,
      "am": 313,
      "ĠE": 314,
      "ind": 315,
      "ain": 316,
      "pp": 317,
      "ate": 318,
      "Ġbod": 319,
      "Ġwhe": 320,
      "Ġif": 321,
      "il": 322,
      "ĠB": 323,
      "ies": 324,
      "ood": 325,
      "co": 326,
      "ress": 327,
      "rom": 328,
      "ud": 329,
      "em": 330,
      "omni": 331,
      "ĠIn": 332,
      "Ġasleep": 333,
      "Ġup": 334,
      "ack": 335,
      "Ġbody": 336,
      "ĠO": 337,
      "Ġde": 338,
      "ally": 339,
      "somni": 340,
      "Ġfeel": 341,
      "somnia": 342,
      "ure": 343,
      "ĠG": 344,
      "ĠF": 345,
      "Ġwork": 346,
      "pe": 347,
      "ru": 348,
      "Ġim": 349,
      "Ġby": 350,
      "Ġfall": 351,
      "Ġthan": 352,
      "ide": 353,
      "ĠHe": 354,
      "ffect": 355,
      "iv": 356,
      "Ġen": 357,
      "Ġse": 358,
      "________________________________": 359,
      "Ġthis": 360,
      "age": 361,
      "du": 362,
      "Ġcom": 363,
      "ant": 364,
      "nt": 365,
      "ry": 366,
      "Ġ3": 367,
      "Ġab": 368,
      "Ġaw": 369,
      "Ġthey": 370,
      "Ġrel": 371,
      "ink": 372,
      "Ġmake": 373,
      "ong": 374,
      "Ġfrom": 375,
      "Ġwhen": 376,
      "Ġother": 377,
      "Ġdi": 378,
      "ctor": 379,
      "Ġdisord": 380,
      "pn": 381,
      "ist": 382,
      "Ġmo": 383,
      "one": 384,
      "Ġhour": 385,
      "ĠTh": 386,
      "ause": 387,
      "Ġsn": 388,
      "ci": 389,
      "ĠHealth": 390,
      "time": 391,
      "Ġwill": 392,
      "Ġmed": 393,
      "Ġwell": 394,
      "ĠâĢľ": 395,
      "Ġimp": 396,
      "Ġsome": 397,
      "red": 398,
      "Ġinsomnia": 399,
      "ast": 400,
      "fore": 401,
      "Ġmu": 402,
      "Ġinc": 403,
      "Ġhow": 404,
      "Ġsy": 405,
      "oring": 406,
      "ĠYour": 407,
      "pnea": 408,
      "cc": 409,
      "Ġk": 410,
      "Ġme": 411,
      "rain": 412,
      "ild": 413,
      "Ġqu": 414,
      "Ġsleeping": 415,
      "âĢĵ": 416,
      "Ġhours": 417,
      "01": 418,
      "Ġso": 419,
      "Ġco": 420,
      "Ġbefore": 421,
      "Ġhealth": 422,
      "ĠYou": 423,
      "ike": 424,
      "ving": 425,
      "ĠL": 426,
      "Ġv": 427,
      "Ġapnea": 428,
      "ction": 429,
      "ful": 430,
      "ig": 431,
      "ile": 432,
      "ary": 433,
      "ĠâĢ¢": 434,
      "blem": 435,
      "ie": 436,
      "ne": 437,
      "ould": 438,
      "Ġbet": 439,
      "ĠIt": 440,
      "per": 441,
      "ous": 442,
      "ĠIf": 443,
      "Ġover": 444,
      "ated": 445,
      "Ġtheir": 446,
      "Ġpart": 447,
      "ition": 448,
      "ult": 449,
      "EM": 450,
      "ge": 451,
      "ÂŃ": 452,
      "Ġpre": 453,
      "any": 454,
      "Ġus": 455,
      "ĠWh": 456,
      "Ġneed": 457,
      "Ġcont": 458,
      "Ġabout": 459,
      "ear": 460,
      "form": 461,
      "ren": 462,
      "ise": 463,
      "rap": 464,
      "av": 465,
      "end": 466,
      "fic": 467,
      "Ġtreat": 468,
      "ound": 469,
      "Ġbut": 470,
      "Ġper": 471,
      "Ġlike": 472,
      "Ġbec": 473,
      "Ġproblem": 474,
      "Ġbrain": 475,
      "ning": 476,
      "Ġdif": 477,
      "âĢĿ": 478,
      "Ġeffect": 479,
      "reath": 480,
      "ĠThis": 481,
      "ose": 482,
      "Ġ5": 483,
      "Ġthese": 484,
      "Ġpo": 485,
      "ard": 486,
      "Ġgo": 487,
      "Ġgood": 488,
      "mon": 489,
      "sc": 490,
      "ten": 491,
      "Ġact": 492,
      "âĢĶ": 493,
      "own": 494,
      "ĠHealthy": 495,
      "Ġca": 496,
      "Ġour": 497,
      "Ġbreath": 498,
      "Ġwake": 499,
      "ite": 500,
      "Ġuse": 501,
      "ular": 502,
      "Ġenough": 503,
      "ax": 504,
      "fter": 505,
      "oid": 506,
      "ting": 507,
      "ust": 508,
      "ïĤ": 509,
      "ĠïĤ": 510,
      "Ġlong": 511,
      "Ġev": 512,
      "Ġwhile": 513,
      "ĠïĤ·": 514,
      "um": 515,
      "Ġout": 516,
      "Ġblo": 517,
      "alk": 518,
      "ance": 519,
      "Ġone": 520,
      "very": 521,
      "Ġany": 522,
      "Ġchild": 523,
      "able": 524,
      "Ġke": 525,
      "Ġclo": 526,
      "Ġsleepy": 527,
      "ans": 528,
      "Ġstud": 529,
      "ach": 530,
      "ily": 531,
      "ue": 532,
      "way": 533,
      "Ġ4": 534,
      "Ġj": 535,
      "Ġafter": 536,
      "Ġrest": 537,
      "ations": 538,
      "Ġmedic": 539,
      "ab": 540,
      "ell": 541,
      "rink": 542,
      "Ġ________________________________": 543,
      "Ġair": 544,
      "___": 545,
      "erc": 546,
      "Ġfa": 547,
      "___________": 548,
      "Ġlight": 549,
      "___________________________": 550,
      "ĠHow": 551,
      "psy": 552,
      "aus": 553,
      "Ġkeep": 554,
      "Ġ___________________________________________________________": 555,
      "gs": 556,
      "un": 557,
      "ys": 558,
      "Ġoften": 559,
      "Ġres": 560,
      "Ġdoctor": 561,
      "Ġkn": 562,
      "lud": 563,
      "uide": 564,
      "Ġti": 565,
      "Ġspe": 566,
      "als": 567,
      "ence": 568,
      "imes": 569,
      "ults": 570,
      "Ġdisorders": 571,
      "che": 572,
      "mpt": 573,
      "os": 574,
      "ron": 575,
      "iness": 576,
      "Ġway": 577,
      "Ġmin": 578,
      "Ġno": 579,
      "arco": 580,
      "Ġsuch": 581,
      "Ġbetter": 582,
      "ĠWhat": 583,
      "row": 584,
      "Ġtry": 585,
      "Ġar": 586,
      "Ġall": 587,
      "ater": 588,
      "vel": 589,
      "Ġrec": 590,
      "Ġawake": 591,
      "Ġdisorder": 592,
      "Ġmost": 593,
      "Ġmuch": 594,
      "Ġchildren": 595,
      "aps": 596,
      "ber": 597,
      "ger": 598,
      "io": 599,
      "void": 600,
      "ĠU": 601,
      "lepsy": 602,
      "Ġback": 603,
      "Ġcal": 604,
      "oms": 605,
      "ĠAl": 606,
      "Ġwee": 607,
      "Ġ10": 608,
      "ments": 609,
      "aking": 610,
      "Ġsympt": 611,
      "Ġproblems": 612,
      "arcolepsy": 613,
      ").": 614,
      "hol": 615,
      "ness": 616,
      "rou": 617,
      "te": 618,
      "Ġlif": 619,
      "Ġlack": 620,
      "ĠREM": 621,
      "Ġshould": 622,
      "cohol": 623,
      "ĠGuide": 624,
      "Ġimport": 625,
      "formation": 626,
      "Ġbreathing": 627,
      "ces": 628,
      "lin": 629,
      "ative": 630,
      "ings": 631,
      "Ġmany": 632,
      "onin": 633,
      "Ġsleepiness": 634,
      "Ġfind": 635,
      "Ġhorm": 636,
      "ĠSt": 637,
      "ĠSome": 638,
      "Ġstress": 639,
      "Ġwhat": 640,
      "ĠDo": 641,
      "Ġexerc": 642,
      "rapy": 643,
      "hav": 644,
      "Ġ7": 645,
      "Ġaffect": 646,
      "atonin": 647,
      "Ġcaus": 648,
      "Ġdrink": 649,
      "ality": 650,
      "ich": 651,
      "Ġlo": 652,
      "Ġear": 653,
      "Ġhas": 654,
      "Ġheart": 655,
      "Ġsupp": 656,
      "agn": 657,
      "elatonin": 658,
      "Ġdaytime": 659,
      "aken": 660,
      "ctors": 661,
      "Ġincre": 662,
      "Ġsymptoms": 663,
      "Ġimportant": 664,
      "la": 665,
      "low": 666,
      "ok": 667,
      "Ġapp": 668,
      "ount": 669,
      "Ġdep": 670,
      "Ġdri": 671,
      "Ġpat": 672,
      "Ġstay": 673,
      "tern": 674,
      "Ġalcohol": 675,
      "ĠDis": 676,
      "Ġsnoring": 677,
      "ronic": 678,
      "us": 679,
      "ĠJ": 680,
      "Ġam": 681,
      "led": 682,
      "Ġcause": 683,
      "ice": 684,
      "ety": 685,
      "Ġless": 686,
      "utes": 687,
      "quent": 688,
      "Ġadults": 689,
      "Ġinclud": 690,
      "Ġbecause": 691,
      "Ġdiffic": 692,
      "Ġactiv": 693,
      "Ġblood": 694,
      "havi": 695,
      "ever": 696,
      "ww": 697,
      "Ġ6": 698,
      "Ġsp": 699,
      "Ġocc": 700,
      "Ġmy": 701,
      "isk": 702,
      "Ġfo": 703,
      "Ġfre": 704,
      "ick": 705,
      "ents": 706,
      "Ġun": 707,
      "Ġleast": 708,
      "log": 709,
      "Ġ201": 710,
      "Ġrisk": 711,
      "rupt": 712,
      "Ġcommon": 713,
      "ign": 714,
      "Ġclock": 715,
      "Ġdifficult": 716,
      "bs": 717,
      "cess": 718,
      "ef": 719,
      "ges": 720,
      "gular": 721,
      "og": 722,
      "ved": 723,
      "we": 724,
      "yp": 725,
      "ating": 726,
      "Ġthem": 727,
      "ons": 728,
      "Ġpain": 729,
      "Ġpress": 730,
      "Ġhard": 731,
      "Ġonly": 732,
      "Ġwhich": 733,
      "ĠMed": 734,
      "ĠRes": 735,
      "Ġchan": 736,
      "akes": 737,
      "Ġrelax": 738,
      "Ġsnore": 739,
      "Ġquality": 740,
      "Ġlikely": 741,
      "Ġeffects": 742,
      "Ġeven": 743,
      "Ġairway": 744,
      "Ġtired": 745,
      "Ġminutes": 746,
      "Ġweek": 747,
      "linical": 748,
      "Ġpressure": 749,
      "ase": 750,
      "tain": 751,
      "ually": 752,
      "Ġtw": 753,
      "Ġtri": 754,
      "ines": 755,
      "Ġmelatonin": 756,
      "Ġdon": 757,
      "Ġpill": 758,
      "its": 759,
      "Ġbeing": 760,
      "sear": 761,
      "other": 762,
      "Ġlear": 763,
      "ĠThese": 764,
      "ample": 765,
      "duce": 766,
      "Ġknow": 767,
      "havior": 768,
      "rough": 769,
      "Ġ9": 770,
      "Ġtake": 771,
      "Ġtimes": 772,
      "orning": 773,
      "ndition": 774,
      "Ġmind": 775,
      "Ġph": 776,
      "Ġnaps": 777,
      "Ġnarcolepsy": 778,
      "room": 779,
      "Ġlevel": 780,
      "Ġ20": 781,
      "ffeine": 782,
      "Ġfew": 783,
      "Ġgetting": 784,
      "Ġrelie": 785,
      "Ġlife": 786,
      "Ġexercise": 787,
      "logical": 788,
      "op": 789,
      "Ġtend": 790,
      "ream": 791,
      "Ġbest": 792,
      "nder": 793,
      "ones": 794,
      "Ġthrough": 795,
      "Ġbehavior": 796,
      "Ġeach": 797,
      "vers": 798,
      "lder": 799,
      "ages": 800,
      "fere": 801,
      "ĠPeople": 802,
      "ormal": 803,
      "Ġmove": 804,
      "Ġimpro": 805,
      "ĠDisord": 806,
      "ĠResear": 807,
      "be": 808,
      "ial": 809,
      "Ġtra": 810,
      "Ġwas": 811,
      "Ġcu": 812,
      "Ġmight": 813,
      "Ġmorning": 814,
      "Ġdown": 815,
      "Ġtherapy": 816,
      "Ġtoo": 817,
      "Ġpers": 818,
      "Ġint": 819,
      "velo": 820,
      "Ġresear": 821,
      "sel": 822,
      "ift": 823,
      "ases": 824,
      "ĠCom": 825,
      "Ġshort": 826,
      "Ġbedtime": 827,
      "ility": 828,
      "ĠBe": 829,
      "Ġdevelo": 830,
      "Ġstudies": 831,
      "rouble": 832,
      "Ġoccur": 833,
      "Ġfrequent": 834,
      "Ġtwo": 835,
      "Ġdevelop": 836,
      "10": 837,
      "are": 838,
      "act": 839,
      "ee": 840,
      "ier": 841,
      "ible": 842,
      "lu": 843,
      "rit": 844,
      "the": 845,
      "yth": 846,
      "Ġ8": 847,
      "ĠK": 848,
      "Ġtem": 849,
      "Ġtrouble": 850,
      "ates": 851,
      "org": 852,
      "ory": 853,
      "Ġpar": 854,
      "Ġinformation": 855,
      "Ġrem": 856,
      "cho": 857,
      "Ġsug": 858,
      "Ġshow": 859,
      "Ġchronic": 860,
      "Ġadd": 861,
      "Ġawaken": 862,
      "Ġdiary": 863,
      "cial": 864,
      "alking": 865,
      "Ġlevels": 866,
      "cou": 867,
      "ious": 868,
      "noring": 869,
      "ĠV": 870,
      "les": 871,
      "Ġdid": 872,
      "ens": 873,
      "Ġrep": 874,
      "ĠTo": 875,
      "ĠTry": 876,
      "Ġsub": 877,
      "Ġdisrupt": 878,
      "Ġnew": 879,
      "Ġright": 880,
      "ĠEn": 881,
      "Ġdiagn": 882,
      "Ġcondition": 883,
      "Ġcaffeine": 884,
      "Ġfactors": 885,
      "Ġearly": 886,
      "Ġsupport": 887,
      "LS": 888,
      "tra": 889,
      "Ġvery": 890,
      "Ġtea": 891,
      "Ġsm": 892,
      "Ġsign": 893,
      "ler": 894,
      "less": 895,
      "atur": 896,
      "Ġthen": 897,
      "Ġregular": 898,
      "Ġreduce": 899,
      "Ġeas": 900,
      "Ġevery": 901,
      "ower": 902,
      "enter": 903,
      "ental": 904,
      "Ġgreat": 905,
      "Ġunder": 906,
      "ask": 907,
      "ational": 908,
      "iron": 909,
      "Ġlegs": 910,
      "ĠCh": 911,
      "ute": 912,
      "ĠEx": 913,
      "Ġpartic": 914,
      "Ġtreatment": 915,
      "oundation": 916,
      "Ġposs": 917,
      "Ġdriving": 918,
      "),": 919,
      "REM": 920,
      "ail": 921,
      "cle": 922,
      "mer": 923,
      "oth": 924,
      "sleep": 925,
      "Ġtyp": 926,
      "Ġavoid": 927,
      "Ġslow": 928,
      "oud": 929,
      "ath": 930,
      "Ġwant": 931,
      "Ġcy": 932,
      "Ġclinical": 933,
      "Ġdream": 934,
      "Ġfir": 935,
      "Ġpage": 936,
      "itive": 937,
      "Ġnon": 938,
      "Ġthose": 939,
      "Ġref": 940,
      "ĠSnoring": 941,
      "Ġhelps": 942,
      "Ġshift": 943,
      "Ġexample": 944,
      "ĠOne": 945,
      "ĠFor": 946,
      "Ġfalling": 947,
      "ctions": 948,
      "Ġdiffere": 949,
      "Ġlonger": 950,
      "ĠResearch": 951,
      "Ġinto": 952,
      "Ġresearch": 953,
      "Ġdifferent": 954,
      "just": 955,
      "ost": 956,
      "pple": 957,
      "su": 958,
      "yg": 959,
      "Ġacc": 960,
      "hen": 961,
      "Ġolder": 962,
      "ature": 963,
      "ertain": 964,
      "Ġwater": 965,
      "Ġche": 966,
      "nds": 967,
      "Ġmon": 968,
      "Ġthere": 969,
      "ants": 970,
      "arm": 971,
      "Ġthings": 972,
      "ions": 973,
      "Ġgrow": 974,
      "though": 975,
      "Ġstages": 976,
      "ĠMany": 977,
      "Ġsupple": 978,
      "rib": 979,
      "ĠThere": 980,
      "ĠRLS": 981,
      "Ġprodu": 982,
      "ĠPro": 983,
      "Ġexper": 984,
      "ically": 985,
      "Ġcons": 986,
      "ĠEv": 987,
      "ils": 988,
      "Ġcomp": 989,
      "Ġmusc": 990,
      "Ġcontin": 991,
      "Ġcare": 992,
      "Ġstudy": 993,
      "Ġspend": 994,
      "iological": 995,
      "Ġamount": 996,
      "ĠDisorders": 997,
      "Ġperson": 998,
      "ac": 999,
      "cre": 1000,
      "cent": 1001,
      "eep": 1002,
      "fort": 1003,
      "ging": 1004,
      "ien": 1005,
      "iety": 1006,
      "tt": 1007,
      "Ġing": 1008,
      "Ġra": 1009,
      "Ġtest": 1010,
      "ors": 1011,
      "Ġcell": 1012,
      "ities": 1013,
      "Ġinter": 1014,
      "Ġlim": 1015,
      "Ġloud": 1016,
      "Ġread": 1017,
      "Ġet": 1018,
      "stem": 1019,
      "llow": 1020,
      "Ġhapp": 1021,
      "ĠAn": 1022,
      "ased": 1023,
      "Ġwere": 1024,
      "ĠâĢĵ": 1025,
      "Ġanx": 1026,
      "Ġdoes": 1027,
      "ĠWe": 1028,
      "Ġadjust": 1029,
      "Ġbedroom": 1030,
      "ade": 1031,
      "ame": 1032,
      "ĠBut": 1033,
      "ĠOther": 1034,
      "Ġdeep": 1035,
      "Ġ30": 1036,
      "Ġjust": 1037,
      "Ġrested": 1038,
      "Ġpattern": 1039,
      "Ġinclude": 1040,
      "Ġactivity": 1041,
      "bsite": 1042,
      "Ġchanges": 1043,
      "self": 1044,
      "Ġpossible": 1045,
      "meric": 1046,
      "Ġfirst": 1047,
      ".)": 1048,
      "AP": 1049,
      "ap": 1050,
      "and": 1051,
      "go": 1052,
      "ib": 1053,
      "me": 1054,
      "ole": 1055,
      "Ġside": 1056,
      "outh": 1057,
      "Ġwww": 1058,
      "Ġcol": 1059,
      "Ġmakes": 1060,
      "Ġmouth": 1061,
      "Ġoff": 1062,
      "Ġnormal": 1063,
      "Ġey": 1064,
      "thing": 1065,
      "Ġhad": 1066,
      "Ġstart": 1067,
      "ific": 1068,
      "ĠAvoid": 1069,
      "ĠAmeric": 1070,
      "ass": 1071,
      "Ġdisea": 1072,
      "ĠInsomnia": 1073,
      "Ġsee": 1074,
      "Ġmedical": 1075,
      "Ġsystem": 1076,
      "Ġhealthy": 1077,
      "Ġvar": 1078,
      "Ġprev": 1079,
      "Ġused": 1080,
      "Ġusually": 1081,
      "Ġperform": 1082,
      "Ġmedications": 1083,
      "ĠAlthough": 1084,
      "Ġhormone": 1085,
      "Ġharder": 1086,
      "ĠMedic": 1087,
      "Ġlearn": 1088,
      "Ġimprove": 1089,
      "chool": 1090,
      "Ġdisease": 1091,
      "ale": 1092,
      "ave": 1093,
      "air": 1094,
      "aily": 1095,
      "gest": 1096,
      "lan": 1097,
      "mend": 1098,
      "sy": 1099,
      "tin": 1100,
      "ves": 1101,
      "Ġtis": 1102,
      "Ġtaking": 1103,
      "Ġag": 1104,
      "ints": 1105,
      "Ġsa": 1106,
      "err": 1107,
      "Ġbu": 1108,
      "Ġbath": 1109,
      "Ġwould": 1110,
      "Ġcar": 1111,
      "Ġmid": 1112,
      "Ġdes": 1113,
      "Ġdan": 1114,
      "Ġfood": 1115,
      "Ġfound": 1116,
      "ener": 1117,
      "omen": 1118,
      "ommend": 1119,
      "Ġthough": 1120,
      "Ġlast": 1121,
      "Ġbeen": 1122,
      "cts": 1123,
      "Ġhaving": 1124,
      "Ġhead": 1125,
      "Ġwhy": 1126,
      "ĠMyth": 1127,
      "ember": 1128,
      "Ġbetwe": 1129,
      "Ġcontro": 1130,
      "Ġgoing": 1131,
      "umber": 1132,
      "abet": 1133,
      "ĠHowever": 1134,
      "Ġrecommend": 1135,
      "Ġcalm": 1136,
      "Ġcalled": 1137,
      "Ġhormones": 1138,
      "Ġcauses": 1139,
      "lace": 1140,
      "Ġfollow": 1141,
      "Ġpillow": 1142,
      "Ġtemper": 1143,
      "Ġsubst": 1144,
      "Ġcycle": 1145,
      "Ġanxiety": 1146,
      "Ġbetween": 1147,
      "//": 1148,
      "://": 1149,
      "PAP": 1150,
      "cy": 1151,
      "com": 1152,
      "dr": 1153,
      "ft": 1154,
      "ip": 1155,
      "iz": 1156,
      "right": 1157,
      "rate": 1158,
      "tent": 1159,
      "Ġ-": 1160,
      "Ġro": 1161,
      "Ġte": 1162,
      "Ġtask": 1163,
      "Ġage": 1164,
      "Ġsle": 1165,
      "ree": 1166,
      "Ġbiological": 1167,
      "Ġwomen": 1168,
      "ndr": 1169,
      "Ġmood": 1170,
      "Ġmaking": 1171,
      "Ġdaily": 1172,
      "alf": 1173,
      "alys": 1174,
      "itation": 1175,
      "Ġnatur": 1176,
      "Ġhigh": 1177,
      "Ġhtt": 1178,
      "Ġthink": 1179,
      "Ġlink": 1180,
      "ional": 1181,
      "imul": 1182,
      "Ġyourself": 1183,
      "ĠIs": 1184,
      "rop": 1185,
      "Ġunt": 1186,
      "idence": 1187,
      "Ġstage": 1188,
      "ĠAs": 1189,
      "Ġsure": 1190,
      "ĠThey": 1191,
      "Ġanother": 1192,
      "Ġ11": 1193,
      "soci": 1194,
      "ĠWhen": 1195,
      "ĠNo": 1196,
      "ĠNational": 1197,
      "Ġrelated": 1198,
      "fulness": 1199,
      "Ġpresc": 1200,
      "Ġresp": 1201,
      "ches": 1202,
      "chedu": 1203,
      "Ġways": 1204,
      "Ġtrig": 1205,
      "ĠCommon": 1206,
      "ĠKeep": 1207,
      "Ġaddition": 1208,
      "cialist": 1209,
      "coura": 1210,
      "Ġreport": 1211,
      "Ġetc": 1212,
      "gov": 1213,
      "Ġcontrol": 1214,
      "abetes": 1215,
      "Ġslept": 1216,
      "alysis": 1217,
      "bl": 1218,
      "ced": 1219,
      "gy": 1220,
      "ire": 1221,
      "iod": 1222,
      "light": 1223,
      "nitive": 1224,
      "ual": 1225,
      "viron": 1226,
      "ydr": 1227,
      "Ġtalk": 1228,
      "int": 1229,
      "Ġsit": 1230,
      "Ġschool": 1231,
      "rect": 1232,
      "atch": 1233,
      "Ġbal": 1234,
      "Ġmen": 1235,
      "Ġmental": 1236,
      "Ġfat": 1237,
      "Ġhot": 1238,
      "ices": 1239,
      "Ġlate": 1240,
      "Ġem": 1241,
      "Ġgener": 1242,
      "roat": 1243,
      "Ġask": 1244,
      "Ġhab": 1245,
      "Ġhand": 1246,
      "ram": 1247,
      "verage": 1248,
      "Ġwebsite": 1249,
      "Ġnights": 1250,
      "Ġlead": 1251,
      "ĠCon": 1252,
      "rief": 1253,
      "ĠRe": 1254,
      "Ġexp": 1255,
      "Ġaden": 1256,
      "ĠNot": 1257,
      "amily": 1258,
      "ression": 1259,
      "Ġfeeling": 1260,
      "ĠGP": 1261,
      "ives": 1262,
      "Ġability": 1263,
      "Ġdiabetes": 1264,
      "cially": 1265,
      "Ġperiod": 1266,
      "Ġbecome": 1267,
      "Ġblock": 1268,
      "Ġknown": 1269,
      "Ġrecord": 1270,
      "Ġthroughout": 1271,
      "Ġfrequently": 1272,
      "Ġdiagnose": 1273,
      "Ġsupplements": 1274,
      "Ġagain": 1275,
      "ndrome": 1276,
      "Ġlinked": 1277,
      "vironment": 1278,
      "LE": 1279,
      "See": 1280,
      "bt": 1281,
      "ffic": 1282,
      "night": 1283,
      "ph": 1284,
      "sh": 1285,
      "tal": 1286,
      "uch": 1287,
      "Ġid": 1288,
      "Ġir": 1289,
      "ination": 1290,
      "Ġsk": 1291,
      "Ġsur": 1292,
      "Ġschedu": 1293,
      "lect": 1294,
      "health": 1295,
      "Ġben": 1296,
      "Ġbrief": 1297,
      "Ġcreat": 1298,
      "Ġcertain": 1299,
      "Ġmat": 1300,
      "Ġmain": 1301,
      "Ġmem": 1302,
      "Ġdone": 1303,
      "Ġfun": 1304,
      "ening": 1305,
      "Ġnumber": 1306,
      "Ġinf": 1307,
      "arge": 1308,
      "Ġthroat": 1309,
      "Ġassoci": 1310,
      "Ġform": 1311,
      "Ġstimul": 1312,
      "veral": 1313,
      "ĠHints": 1314,
      "Ġits": 1315,
      "ĠCPAP": 1316,
      "Ġdays": 1317,
      "Ġdoing": 1318,
      "Ġconf": 1319,
      "Ġbodies": 1320,
      "ivid": 1321,
      "Ġener": 1322,
      "Ġseco": 1323,
      "Ġseem": 1324,
      "Ġseveral": 1325,
      "ccess": 1326,
      "Ġquick": 1327,
      "Ġsoft": 1328,
      "Ġneeds": 1329,
      "Ġneeded": 1330,
      "Ġeffective": 1331,
      "ways": 1332,
      "Ġresult": 1333,
      "osed": 1334,
      "Ġdepri": 1335,
      "Ġactivities": 1336,
      "Ġairways": 1337,
      "Ġphys": 1338,
      "Ġparalysis": 1339,
      "Ġconditions": 1340,
      "fortable": 1341,
      "Ġtemperature": 1342,
      "couraging": 1343,
      "):": 1344,
      "20": 1345,
      "dle": 1346,
      "day": 1347,
      "ff": 1348,
      "gies": 1349,
      "ips": 1350,
      "ience": 1351,
      "no": 1352,
      "ond": 1353,
      "xyg": 1354,
      "Ġterr": 1355,
      "Ġav": 1356,
      "Ġaverage": 1357,
      "Ġsite": 1358,
      "rest": 1359,
      "oun": 1360,
      "Ġob": 1361,
      "ather": 1362,
      "Ġboth": 1363,
      "Ġwav": 1364,
      "Ġmade": 1365,
      "Ġdru": 1366,
      "Ġdue": 1367,
      "espe": 1368,
      "Ġtotal": 1369,
      "ish": 1370,
      "Ġpower": 1371,
      "itute": 1372,
      "Ġind": 1373,
      "omet": 1374,
      "plete": 1375,
      "ĠAd": 1376,
      "Ġweight": 1377,
      "Ġwithout": 1378,
      "ĠCog": 1379,
      "ĠâĢĿ": 1380,
      "ĠDi": 1381,
      "ĠDon": 1382,
      "ĠDuring": 1383,
      "Ġ15": 1384,
      "Ġneck": 1385,
      "ffee": 1386,
      "Ġadv": 1387,
      "ĠNight": 1388,
      "Ġwhere": 1389,
      "Ġwhether": 1390,
      "Ġdebt": 1391,
      "ures": 1392,
      "ĠFoundation": 1393,
      "Ġworkers": 1394,
      "iven": 1395,
      "Ġhowever": 1396,
      "Ġkind": 1397,
      "Ġpos": 1398,
      "Ġmedicines": 1399,
      "Ġtips": 1400,
      "Ġspecialist": 1401,
      "Ġcaused": 1402,
      "Ġincrease": 1403,
      "Ġappear": 1404,
      "Ġdepression": 1405,
      "Ġpath": 1406,
      "Ġlearning": 1407,
      "Ġrelieve": 1408,
      "Ġoccurs": 1409,
      "Ġsuggest": 1410,
      "ĠEncouraging": 1411,
      "Ġparticip": 1412,
      "Ġtypically": 1413,
      "sues": 1414,
      "Ġcells": 1415,
      "Ġloudly": 1416,
      "ĠWeb": 1417,
      "Ġvarious": 1418,
      "ĠMedicine": 1419,
      "Ġtissues": 1420,
      "Ġmiddle": 1421,
      "Ġfoods": 1422,
      "Ġfollowing": 1423,
      "Ġbenef": 1424,
      "xygen": 1425,
      "Ġwaves": 1426,
      "especially": 1427,
      "ĠCognitive": 1428,
      "30": 1429,
      "ai": 1430,
      "aches": 1431,
      "cing": 1432,
      "cher": 1433,
      "cause": 1434,
      "cus": 1435,
      "foundation": 1436,
      "gr": 1437,
      "ients": 1438,
      "king": 1439,
      "ling": 1440,
      "lain": 1441,
      "lier": 1442,
      "ove": 1443,
      "tre": 1444,
      "ubl": 1445,
      "wh": 1446,
      "Ġrap": 1447,
      "Ġtell": 1448,
      "Ġaler": 1449,
      "Ġsame": 1450,
      "ret": 1451,
      "rely": 1452,
      "Ġop": 1453,
      "Ġow": 1454,
      "Ġoxygen": 1455,
      "Ġwent": 1456,
      "Ġwalking": 1457,
      "Ġwarm": 1458,
      "Ġwatch": 1459,
      "aling": 1460,
      "Ġyear": 1461,
      "Ġfamily": 1462,
      "Ġprom": 1463,
      "ited": 1464,
      "ange": 1465,
      "Ġhy": 1466,
      "Ġhome": 1467,
      "icot": 1468,
      "Ġlit": 1469,
      "Ġlot": 1470,
      "Ġlater": 1471,
      "Ġlower": 1472,
      "Ġrequ": 1473,
      "ential": 1474,
      "ĠTV": 1475,
      "Ġgrou": 1476,
      "eter": 1477,
      "urn": 1478,
      "ote": 1479,
      "ird": 1480,
      "Ġnighttime": 1481,
      "ĠMore": 1482,
      "Ġ12": 1483,
      "Ġdistra": 1484,
      "ead": 1485,
      "ĠRel": 1486,
      "quate": 1487,
      "Ġexcess": 1488,
      "ĠGet": 1489,
      "Ġworks": 1490,
      "rup": 1491,
      "Ġenvironment": 1492,
      "Ġsomething": 1493,
      "Ġsyndrome": 1494,
      "iew": 1495,
      "Ġpartn": 1496,
      "Ġcontrib": 1497,
      "Ġbecom": 1498,
      "Ġpoor": 1499,
      "Ġuseful": 1500,
      "ularly": 1501,
      "Ġevidence": 1502,
      "Ġmedication": 1503,
      "ĠAlso": 1504,
      "ĠStud": 1505,
      "Ġdrinks": 1506,
      "Ġlost": 1507,
      "Ġincreased": 1508,
      "Ġfocus": 1509,
      "oga": 1510,
      "Ġchange": 1511,
      "Ġbehavioral": 1512,
      "Ġremember": 1513,
      "Ġshows": 1514,
      "Ġteam": 1515,
      "Ġsmall": 1516,
      "Ġsigns": 1517,
      "Ġparticularly": 1518,
      "ailable": 1519,
      "Ġdreams": 1520,
      "Ġgrowth": 1521,
      "Ġexperience": 1522,
      "Ġmuscles": 1523,
      "Ġhappens": 1524,
      "Ġdoesn": 1525,
      "Ġpatterns": 1526,
      "Ġsafe": 1527,
      "Ġdanger": 1528,
      "Ġnatural": 1529,
      "Ġuntil": 1530,
      "Ġtrigger": 1531,
      "Ġbalance": 1532,
      "Ġhabits": 1533,
      "Ġidea": 1534,
      "Ġenergy": 1535,
      "Ġquickly": 1536,
      "Ġavailable": 1537,
      "ometimes": 1538,
      "chers": 1539,
      "treme": 1540,
      "ublic": 1541,
      "Ġrapid": 1542,
      "icotine": 1543,
      "05": 1544,
      "SG": 1545,
      "cad": 1546,
      "clud": 1547,
      "ele": 1548,
      "for": 1549,
      "gin": 1550,
      "gative": 1551,
      "mu": 1552,
      "ng": 1553,
      "ook": 1554,
      "ric": 1555,
      "ration": 1556,
      "uk": 1557,
      "yle": 1558,
      "Ġed": 1559,
      "Ġable": 1560,
      "Ġsed": 1561,
      "len": 1562,
      "lease": 1563,
      "atory": 1564,
      "erv": 1565,
      "Ġbre": 1566,
      "Ġbas": 1567,
      "Ġcor": 1568,
      "Ġcra": 1569,
      "Ġdrow": 1570,
      "alu": 1571,
      "ises": 1572,
      "ised": 1573,
      "ists": 1574,
      "Ġflu": 1575,
      "Ġinte": 1576,
      "ark": 1577,
      "Ġhalf": 1578,
      "Ġthree": 1579,
      "Ġstret": 1580,
      "ract": 1581,
      "ott": 1582,
      "ĠAr": 1583,
      "ources": 1584,
      "ĠSleeping": 1585,
      "ĠMuch": 1586,
      "ĠâĢĺ": 1587,
      "ĠDep": 1588,
      "Ġattent": 1589,
      "Ġ18": 1590,
      "Ġdoi": 1591,
      "Ġprov": 1592,
      "Ġnecess": 1593,
      "Ġnegative": 1594,
      "ĠPage": 1595,
      "Ġextra": 1596,
      "Ġextreme": 1597,
      "nivers": 1598,
      "Ġrate": 1599,
      "estions": 1600,
      "ĠInst": 1601,
      "ĠInte": 1602,
      "ĠOr": 1603,
      "Ġdev": 1604,
      "pect": 1605,
      "Ġseve": 1606,
      "Ġcomplete": 1607,
      "Ġaway": 1608,
      "istent": 1609,
      "Ġcoffee": 1610,
      "Ġpres": 1611,
      "Ġcontain": 1612,
      "Ġtreatments": 1613,
      "Ġpercent": 1614,
      "oids": 1615,
      "Ġjo": 1616,
      "Ġrestless": 1617,
      "Ġlights": 1618,
      "auses": 1619,
      "unity": 1620,
      "Ġnoise": 1621,
      "Ġtrying": 1622,
      "Ġlook": 1623,
      "Ġincreases": 1624,
      "Ġstaying": 1625,
      "Ġpills": 1626,
      "Ġmindfulness": 1627,
      "Ġtravel": 1628,
      "Ġcup": 1629,
      "Ġdeveloping": 1630,
      "Ġsugar": 1631,
      "ĠVeter": 1632,
      "Ġeasily": 1633,
      "Ġcheck": 1634,
      "Ġmonit": 1635,
      "Ġmuscle": 1636,
      "Ġtested": 1637,
      "Ġprevent": 1638,
      "Ġperformance": 1639,
      "Ġbuild": 1640,
      "Ġgenerally": 1641,
      "Ġhandout": 1642,
      "Ġfunction": 1643,
      "Ġassociated": 1644,
      "Ġphysical": 1645,
      "Ġterrors": 1646,
      "Ġpowerful": 1647,
      "grative": 1648,
      "Ġalert": 1649,
      "Ġopen": 1650,
      "Ġown": 1651,
      "Ġdangerous": 1652,
      "Ġinterest": 1653,
      "Ġattention": 1654,
      "niversity": 1655,
      "ĠIntegrative": 1656,
      "ĠVeterans": 1657,
      "'t": 1658,
      "16": 1659,
      "201": 1660,
      "BI": 1661,
      "EP": 1662,
      "HL": 1663,
      "app": 1664,
      "bi": 1665,
      "der": 1666,
      "ex": 1667,
      "fety": 1668,
      "get": 1669,
      "gram": 1670,
      "ix": 1671,
      "ially": 1672,
      "ians": 1673,
      "je": 1674,
      "jur": 1675,
      "min": 1676,
      "mail": 1677,
      "nter": 1678,
      "por": 1679,
      "rim": 1680,
      "sic": 1681,
      "up": 1682,
      "uter": 1683,
      "uous": 1684,
      "uals": 1685,
      "view": 1686,
      "Ġroom": 1687,
      "Ġenter": 1688,
      "Ġiron": 1689,
      "Ġespecially": 1690,
      "Ġtaken": 1691,
      "Ġtons": 1692,
      "ined": 1693,
      "Ġsc": 1694,
      "Ġsal": 1695,
      "Ġsometimes": 1696,
      "hes": 1697,
      "Ġoils": 1698,
      "atic": 1699,
      "ery": 1700,
      "Ġcour": 1701,
      "Ġcould": 1702,
      "Ġcard": 1703,
      "Ġmod": 1704,
      "Ġdel": 1705,
      "allen": 1706,
      "Ġtow": 1707,
      "isc": 1708,
      "Ġfl": 1709,
      "Ġful": 1710,
      "Ġpl": 1711,
      "Ġplan": 1712,
      "Ġpauses": 1713,
      "ital": 1714,
      "Ġnap": 1715,
      "Ġins": 1716,
      "Ġinst": 1717,
      "Ġinfe": 1718,
      "Ġinjur": 1719,
      "ics": 1720,
      "Ġlist": 1721,
      "Ġreg": 1722,
      "Ġreve": 1723,
      "Ġreas": 1724,
      "Ġel": 1725,
      "Ġeat": 1726,
      "Ġend": 1727,
      "ĠSh": 1728,
      "ĠSLE": 1729,
      "sts": 1730,
      "stru": 1731,
      "ĠTele": 1732,
      "Ġher": 1733,
      "Ġupp": 1734,
      "ider": 1735,
      "Ġsto": 1736,
      "Ġstill": 1737,
      "Ġstop": 1738,
      "Ġstrate": 1739,
      "ĠAccess": 1740,
      "asomni": 1741,
      "ĠHave": 1742,
      "ĠMost": 1743,
      "uts": 1744,
      "psom": 1745,
      "ries": 1746,
      "riate": 1747,
      "Ġant": 1748,
      "Ġ19": 1749,
      "ĠRo": 1750,
      "ively": 1751,
      "Ġprocess": 1752,
      "nih": 1753,
      "ĠNe": 1754,
      "ĠNarcolepsy": 1755,
      "Ġrather": 1756,
      "Ġworry": 1757,
      "ĠEpsom": 1758,
      "Ġdec": 1759,
      "Ġcomfortable": 1760,
      "Ġaware": 1761,
      "ĠThink": 1762,
      "Ġmeditation": 1763,
      "Ġmusic": 1764,
      "Ġmeas": 1765,
      "Ġquestions": 1766,
      "igue": 1767,
      "ney": 1768,
      "peract": 1769,
      "ĠWhole": 1770,
      "Ġactive": 1771,
      "Ġclos": 1772,
      "Ġresults": 1773,
      "osine": 1774,
      "Ġaround": 1775,
      "gery": 1776,
      "ĠUn": 1777,
      "ĠUniversity": 1778,
      "Ġweeke": 1779,
      "Ġshoulders": 1780,
      "ĠDoctors": 1781,
      "Ġaffected": 1782,
      "Ġearlier": 1783,
      "Ġincluding": 1784,
      "Ġ2016": 1785,
      "Ġrelaxation": 1786,
      "Ġevening": 1787,
      "Ġmovements": 1788,
      "being": 1789,
      "ĠBecause": 1790,
      "Ġawakenings": 1791,
      "counter": 1792,
      "Ġregularly": 1793,
      "Ġeasier": 1794,
      "Ġunderst": 1795,
      "ĠExerc": 1796,
      "sleepfoundation": 1797,
      "ygien": 1798,
      "Ġaccid": 1799,
      "Ġmonth": 1800,
      "ribed": 1801,
      "Ġcontinue": 1802,
      "Ġeyes": 1803,
      "ĠAmerican": 1804,
      "ĠAmericans": 1805,
      "Ġsubstance": 1806,
      "ize": 1807,
      "Ġhttps": 1808,
      "ropriate": 1809,
      "Ġprescribed": 1810,
      "ydrated": 1811,
      "Ġfatigue": 1812,
      "Ġadenosine": 1813,
      "Ġrecording": 1814,
      "phone": 1815,
      "Ġirrit": 1816,
      "Ġseconds": 1817,
      "Ġdeprived": 1818,
      "Ġobes": 1819,
      "Ġbenefits": 1820,
      "Ġpromote": 1821,
      "Ġhyperact": 1822,
      "Ġrequire": 1823,
      "ĠRelax": 1824,
      "Ġexcessive": 1825,
      "rupts": 1826,
      "Ġbreak": 1827,
      "Ġstretch": 1828,
      "ĠInstitute": 1829,
      "Ġsevere": 1830,
      "HLBI": 1831,
      "Ġtonsils": 1832,
      "Ġinjury": 1833,
      "ĠSLEEP": 1834,
      "ĠTelephone": 1835,
      "Ġupper": 1836,
      "asomnias": 1837,
      "ygiene": 1838,
      ".âĢĿ": 1839,
      "00": 1840,
      "56": 1841,
      "LT": 1842,
      "Sleep": 1843,
      "UR": 1844,
      "aw": 1845,
      "aving": 1846,
      "bo": 1847,
      "cular": 1848,
      "dition": 1849,
      "ered": 1850,
      "equate": 1851,
      "fer": 1852,
      "gan": 1853,
      "hl": 1854,
      "hm": 1855,
      "hyth": 1856,
      "ian": 1857,
      "ient": 1858,
      "lass": 1859,
      "mp": 1860,
      "ming": 1861,
      "mit": 1862,
      "not": 1863,
      "normal": 1864,
      "oea": 1865,
      "ping": 1866,
      "ray": 1867,
      "sue": 1868,
      "tle": 1869,
      "uid": 1870,
      "ven": 1871,
      "vas": 1872,
      "wor": 1873,
      "ying": 1874,
      "Ġtes": 1875,
      "Ġtru": 1876,
      "Ġac": 1877,
      "Ġach": 1878,
      "ins": 1879,
      "Ġsim": 1880,
      "Ġsci": 1881,
      "Ġsens": 1882,
      "hed": 1883,
      "ept": 1884,
      "atives": 1885,
      "Ġbad": 1886,
      "Ġbig": 1887,
      "Ġbright": 1888,
      "Ġwon": 1889,
      "Ġwalk": 1890,
      "orts": 1891,
      "Ġcur": 1892,
      "Ġcount": 1893,
      "Ġcases": 1894,
      "Ġcenter": 1895,
      "Ġcoun": 1896,
      "Ġmach": 1897,
      "Ġdro": 1898,
      "Ġtoday": 1899,
      "ising": 1900,
      "Ġfight": 1901,
      "Ġpot": 1902,
      "Ġpract": 1903,
      "Ġnorm": 1904,
      "Ġnose": 1905,
      "Ġlag": 1906,
      "Ġlive": 1907,
      "Ġlau": 1908,
      "Ġlose": 1909,
      "Ġlun": 1910,
      "Ġbegin": 1911,
      "Ġrea": 1912,
      "Ġreview": 1913,
      "imal": 1914,
      "ĠSpe": 1915,
      "ĠSee": 1916,
      "sthm": 1917,
      "Ġgiven": 1918,
      "thod": 1919,
      "third": 1920,
      "ids": 1921,
      "chni": 1922,
      "Ġwear": 1923,
      "Ġweak": 1924,
      "ĠMc": 1925,
      "ĠMy": 1926,
      "ĠMind": 1927,
      "Ġsun": 1928,
      "Ġsus": 1929,
      "ĠCo": 1930,
      "ĠCent": 1931,
      "ĠCenter": 1932,
      "ĠCertain": 1933,
      "ript": 1934,
      "ĠDrink": 1935,
      "ĠThen": 1936,
      "ĠTherapy": 1937,
      "outine": 1938,
      "Ġ13": 1939,
      "Ġ14": 1940,
      "Ġ16": 1941,
      "ĠRest": 1942,
      "Ġdose": 1943,
      "ques": 1944,
      "Ġprote": 1945,
      "ĠWith": 1946,
      "ills": 1947,
      "illion": 1948,
      "Ġchallen": 1949,
      "artment": 1950,
      "Ġadole": 1951,
      "Ġadequate": 1952,
      "Ġgets": 1953,
      "Ġworld": 1954,
      "estyle": 1955,
      "Ġconcent": 1956,
      "ĠInformation": 1957,
      "ĠOn": 1958,
      "ĠFax": 1959,
      "ĠHeart": 1960,
      "duction": 1961,
      "Ġdiet": 1962,
      "pnoea": 1963,
      "istration": 1964,
      "ĠThat": 1965,
      "Ġmeans": 1966,
      "Ġmeals": 1967,
      "ĠLe": 1968,
      "ieve": 1969,
      "ousals": 1970,
      "Ġoverwe": 1971,
      "Ġovernight": 1972,
      "ĠWhile": 1973,
      "Ġtreated": 1974,
      "Ġ50": 1975,
      "Ġjet": 1976,
      "Ġafterno": 1977,
      "Ġlighter": 1978,
      "Ġart": 1979,
      "atively": 1980,
      "Ġcausing": 1981,
      "Ġdepend": 1982,
      "www": 1983,
      "Ġspine": 1984,
      "Ġ2014": 1985,
      "Ġdifficulties": 1986,
      "Ġrelieved": 1987,
      "ĠDisorder": 1988,
      "Ġcues": 1989,
      "Ġcups": 1990,
      "ritish": 1991,
      "chological": 1992,
      "Ġdiagnosed": 1993,
      "Ġtypes": 1994,
      "Ġproduction": 1995,
      "ĠProblem": 1996,
      "Ġconsistent": 1997,
      "ĠEven": 1998,
      "Ġcomputer": 1999,
      "Ġrarely": 2000,
      "Ġreading": 2001,
      "ĠAnother": 2002,
      "Ġheadaches": 2003,
      "Ġroad": 2004,
      "Ġtechni": 2005,
      "Ġtasks": 2006,
      "Ġhttp": 2007,
      "Ġthinking": 2008,
      "Ġemot": 2009,
      "Ġexplain": 2010,
      "Ġskin": 2011,
      "Ġsurgery": 2012,
      "Ġmatter": 2013,
      "Ġmemory": 2014,
      "Ġconfus": 2015,
      "Ġpositive": 2016,
      "Ġpathways": 2017,
      "aired": 2018,
      "Ġlots": 2019,
      "Ġdistractions": 2020,
      "Ġpartner": 2021,
      "Ġcontribute": 2022,
      "Ġbecomes": 2023,
      "ĠStudies": 2024,
      "mune": 2025,
      "Ġbasis": 2026,
      "Ġcorrect": 2027,
      "Ġdrowsy": 2028,
      "ĠDepartment": 2029,
      "Ġnecessary": 2030,
      "ject": 2031,
      "Ġcardio": 2032,
      "Ġfully": 2033,
      "ĠAccessed": 2034,
      "Ġweekends": 2035,
      "Ġaccidents": 2036,
      "hlbi": 2037,
      "hythm": 2038,
      "Ġtests": 2039,
      "Ġdrops": 2040,
      "Ġnormally": 2041,
      "Ġlungs": 2042,
      "sthma": 2043,
      "Ġweakness": 2044,
      "Ġadolesc": 2045,
      "Ġoverweight": 2046,
      "Ġafternoon": 2047,
      "Ġtechniques": 2048,
      "13": 2049,
      "15": 2050,
      "21": 2051,
      "52": 2052,
      "73": 2053,
      "97": 2054,
      "BT": 2055,
      "Bur": 2056,
      "EA": 2057,
      "EN": 2058,
      "ON": 2059,
      "OR": 2060,
      "con": 2061,
      "ec": 2062,
      "eers": 2063,
      "gg": 2064,
      "gn": 2065,
      "gress": 2066,
      "half": 2067,
      "ia": 2068,
      "ied": 2069,
      "iple": 2070,
      "line": 2071,
      "like": 2072,
      "med": 2073,
      "ned": 2074,
      "net": 2075,
      "nhlbi": 2076,
      "oci": 2077,
      "oving": 2078,
      "pie": 2079,
      "pite": 2080,
      "rong": 2081,
      "rans": 2082,
      "side": 2083,
      "ty": 2084,
      "ull": 2085,
      "unt": 2086,
      "vol": 2087,
      "whe": 2088,
      "Ġ&": 2089,
      "Ġ/": 2090,
      "Ġz": 2091,
      "Ġep": 2092,
      "Ġess": 2093,
      "Ġest": 2094,
      "Ġide": 2095,
      "Ġice": 2096,
      "Ġtion": 2097,
      "Ġasthma": 2098,
      "ince": 2099,
      "inate": 2100,
      "includ": 2101,
      "Ġsw": 2102,
      "Ġser": 2103,
      "Ġsour": 2104,
      "Ġswe": 2105,
      "resh": 2106,
      "ats": 2107,
      "Ġbott": 2108,
      "Ġwind": 2109,
      "Ġwrit": 2110,
      "Ġmet": 2111,
      "Ġmild": 2112,
      "Ġmask": 2113,
      "Ġmass": 2114,
      "Ġdry": 2115,
      "Ġdrop": 2116,
      "Ġtold": 2117,
      "Ġtool": 2118,
      "Ġyoga": 2119,
      "Ġfour": 2120,
      "Ġfru": 2121,
      "Ġflow": 2122,
      "ency": 2123,
      "Ġpal": 2124,
      "Ġpur": 2125,
      "Ġplace": 2126,
      "ither": 2127,
      "anage": 2128,
      "ances": 2129,
      "Ġnar": 2130,
      "Ġnicotine": 2131,
      "Ġinvol": 2132,
      "Ġlab": 2133,
      "Ġlarge": 2134,
      "Ġbel": 2135,
      "lying": 2136,
      "Ġreally": 2137,
      "Ġrelease": 2138,
      "Ġelect": 2139,
      "Ġeither": 2140,
      "ĠSp": 2141,
      "ĠSu": 2142,
      "ĠSy": 2143,
      "Ġorder": 2144,
      "ighten": 2145,
      "ĠTra": 2146,
      "ĠTrans": 2147,
      "ĠInd": 2148,
      "roke": 2149,
      "roduction": 2150,
      "Ġass": 2151,
      "Ġheat": 2152,
      "Ġur": 2153,
      "Ġstroke": 2154,
      "urther": 2155,
      "asp": 2156,
      "Ġalm": 2157,
      "ĠMake": 2158,
      "ĠMelatonin": 2159,
      "ĠMakes": 2160,
      "Ġlet": 2161,
      "aged": 2162,
      "ĠClinical": 2163,
      "rian": 2164,
      "Ġdisc": 2165,
      "Ġshall": 2166,
      "Ġproper": 2167,
      "ortis": 2168,
      "Ġ22": 2169,
      "Ġ24": 2170,
      "Ġ25": 2171,
      "ĠWalking": 2172,
      "ĠWisc": 2173,
      "ĠPh": 2174,
      "ĠPat": 2175,
      "ĠPlace": 2176,
      "ĠNHLBI": 2177,
      "Ġrid": 2178,
      "Ġrice": 2179,
      "Ġrates": 2180,
      "Ġroutine": 2181,
      "Ġrhythm": 2182,
      "olate": 2183,
      "olunt": 2184,
      "Ġconne": 2185,
      "Ġwheel": 2186,
      "ilk": 2187,
      "ilure": 2188,
      "ĠBet": 2189,
      "ĠBoth": 2190,
      "ĠInt": 2191,
      "ĠOur": 2192,
      "ĠOffic": 2193,
      "ĠFind": 2194,
      "ĠFood": 2195,
      "Ġimmune": 2196,
      "ivity": 2197,
      "Ġseen": 2198,
      "antity": 2199,
      "Ġ301": 2200,
      "ongest": 2201,
      "Ġdirect": 2202,
      "istic": 2203,
      "Ġsnort": 2204,
      "Ġsnack": 2205,
      "Ġimpaired": 2206,
      "redients": 2207,
      "Ġkne": 2208,
      "Ġquantity": 2209,
      "ĠLack": 2210,
      "ĠLear": 2211,
      "Ġvolunt": 2212,
      "Ġoverall": 2213,
      "ultiple": 2214,
      "Ġusing": 2215,
      "reng": 2216,
      "Ġactually": 2217,
      "Ġoutside": 2218,
      "Ġanything": 2219,
      "Ġclose": 2220,
      "Ġmedicine": 2221,
      "Ġfailure": 2222,
      "Ġdoctors": 2223,
      "osure": 2224,
      "Ġarm": 2225,
      "ĠAltern": 2226,
      "ĠDoes": 2227,
      "Ġaffects": 2228,
      "Ġdrinking": 2229,
      "land": 2230,
      "laim": 2231,
      "oking": 2232,
      "Ġappro": 2233,
      "ĠDisrupts": 2234,
      "Ġincludes": 2235,
      "Ġ60": 2236,
      "Ġspent": 2237,
      "Ġoccas": 2238,
      "Ġuncom": 2239,
      "Ġdifficulty": 2240,
      "onsin": 2241,
      "ĠMeditation": 2242,
      "Ġrelaxing": 2243,
      "Ġsnored": 2244,
      "Ġweeks": 2245,
      "oph": 2246,
      "versation": 2247,
      "Ġmovement": 2248,
      "ĠResearchers": 2249,
      "Ġtempor": 2250,
      "ĠEnough": 2251,
      "Ġgreater": 2252,
      "ĠChronic": 2253,
      "Ġrefer": 2254,
      "ĠProgram": 2255,
      "Ġspending": 2256,
      "Ġingredients": 2257,
      "Ġinterfere": 2258,
      "Ġlimit": 2259,
      "Ġlimbs": 2260,
      "Ġready": 2261,
      "Ġeye": 2262,
      "alerian": 2263,
      "airs": 2264,
      "sychological": 2265,
      "Ġdancing": 2266,
      "Ġexposure": 2267,
      "Ġadenoids": 2268,
      "Ġskills": 2269,
      "Ġschedule": 2270,
      "Ġschedules": 2271,
      "Ġbriefly": 2272,
      "Ġmaintain": 2273,
      "Ġforms": 2274,
      "Ġseems": 2275,
      "Ġindivid": 2276,
      "ĠAdmin": 2277,
      "Ġyears": 2278,
      "Ġgroups": 2279,
      "Ġsedatives": 2280,
      "aluation": 2281,
      "Ġdevices": 2282,
      "Ġjoint": 2283,
      "Ġmoder": 2284,
      "Ġdelay": 2285,
      "Ġinstead": 2286,
      "Ġinfections": 2287,
      "Ġregul": 2288,
      "Ġreveal": 2289,
      "Ġreasons": 2290,
      "Ġstops": 2291,
      "Ġstrategies": 2292,
      "Ġmeasures": 2293,
      "Ġunderstand": 2294,
      "ĠExercise": 2295,
      "Ġobesity": 2296,
      "ĠRelaxation": 2297,
      "Ġstretching": 2298,
      "work": 2299,
      "Ġscient": 2300,
      "Ġsensations": 2301,
      "Ġlaugh": 2302,
      "Ġreaction": 2303,
      "ĠMcBur": 2304,
      "Ġsuspect": 2305,
      "ription": 2306,
      "Ġemotional": 2307,
      "Ġcardiovas": 2308,
      "Ġadolescents": 2309,
      "Ġideas": 2310,
      "Ġsource": 2311,
      "ĠWisconsin": 2312,
      "ĠOffice": 2313,
      "Ġknees": 2314,
      "Ġvolunteers": 2315,
      "ĠAdministration": 2316,
      "ĠMcBurney": 2317,
      ".,": 2318,
      "12": 2319,
      "14": 2320,
      "19": 2321,
      "24": 2322,
      "28": 2323,
      "50": 2324,
      "?âĢĿ": 2325,
      "CT": 2326,
      "DE": 2327,
      "ES": 2328,
      "HE": 2329,
      "MS": 2330,
      "Mad": 2331,
      "TI": 2332,
      "apt": 2333,
      "affeine": 2334,
      "bing": 2335,
      "bic": 2336,
      "bout": 2337,
      "bac": 2338,
      "colate": 2339,
      "dd": 2340,
      "de": 2341,
      "fess": 2342,
      "ften": 2343,
      "flow": 2344,
      "hind": 2345,
      "haps": 2346,
      "iet": 2347,
      "ium": 2348,
      "ks": 2349,
      "ls": 2350,
      "lam": 2351,
      "munity": 2352,
      "of": 2353,
      "oost": 2354,
      "ocre": 2355,
      "obic": 2356,
      "ocolate": 2357,
      "pd": 2358,
      "pr": 2359,
      "sw": 2360,
      "ses": 2361,
      "ted": 2362,
      "tion": 2363,
      "turn": 2364,
      "uro": 2365,
      "vul": 2366,
      "wake": 2367,
      "walking": 2368,
      "xt": 2369,
      "xy": 2370,
      "ype": 2371,
      "Ġtr": 2372,
      "Ġtu": 2373,
      "Ġtim": 2374,
      "Ġtong": 2375,
      "Ġtakes": 2376,
      "Ġturn": 2377,
      "Ġtype": 2378,
      "Ġapnoea": 2379,
      "Ġsol": 2380,
      "Ġsound": 2381,
      "Ġsick": 2382,
      "Ġsince": 2383,
      "lex": 2384,
      "regular": 2385,
      "Ġopt": 2386,
      "Ġopp": 2387,
      "Ġoil": 2388,
      "epress": 2389,
      "erobic": 2390,
      "Ġbook": 2391,
      "Ġboost": 2392,
      "orn": 2393,
      "ories": 2394,
      "orative": 2395,
      "oratory": 2396,
      "Ġcl": 2397,
      "Ġcent": 2398,
      "Ġcir": 2399,
      "Ġcure": 2400,
      "Ġcortis": 2401,
      "Ġclaim": 2402,
      "Ġmis": 2403,
      "Ġment": 2404,
      "Ġmilk": 2405,
      "Ġmultiple": 2406,
      "Ġdark": 2407,
      "onal": 2408,
      "onse": 2409,
      "ison": 2410,
      "Ġfin": 2411,
      "Ġfix": 2412,
      "Ġfull": 2413,
      "Ġpay": 2414,
      "ancy": 2415,
      "edies": 2416,
      "Ġnow": 2417,
      "arily": 2418,
      "Ġhist": 2419,
      "Ġhos": 2420,
      "Ġhyp": 2421,
      "Ġhygiene": 2422,
      "Ġbehind": 2423,
      "Ġreal": 2424,
      "Ġrece": 2425,
      "Ġredu": 2426,
      "Ġreturn": 2427,
      "Ġef": 2428,
      "Ġeating": 2429,
      "set": 2430,
      "sequent": 2431,
      "ĠSet": 2432,
      "ster": 2433,
      "entle": 2434,
      "ĠTake": 2435,
      "Ġgra": 2436,
      "Ġguide": 2437,
      "ross": 2438,
      "Ġcannot": 2439,
      "Ġheal": 2440,
      "etic": 2441,
      "idepress": 2442,
      "ored": 2443,
      "Ġstru": 2444,
      "Ġstrain": 2445,
      "Ġstrong": 2446,
      "ural": 2447,
      "ife": 2448,
      "ĠApnea": 2449,
      "ĠAff": 2450,
      "ĠAcad": 2451,
      "ĠAbout": 2452,
      "asing": 2453,
      "asal": 2454,
      "asone": 2455,
      "ĠSleepwalking": 2456,
      "ĠHaving": 2457,
      "ĠHEA": 2458,
      "Ġalone": 2459,
      "Ġalways": 2460,
      "ĠMay": 2461,
      "ĠMental": 2462,
      "ĠMove": 2463,
      "Ġleg": 2464,
      "Ġsuccess": 2465,
      "Ġwithin": 2466,
      "agery": 2467,
      "ĠCult": 2468,
      "ĠCare": 2469,
      "ĠCaffeine": 2470,
      "utr": 2471,
      "ĠDe": 2472,
      "lol": 2473,
      "Ġatt": 2474,
      "Ġansw": 2475,
      "reathe": 2476,
      "reated": 2477,
      "Ġdistin": 2478,
      "ĠYoga": 2479,
      "eak": 2480,
      "Ġshut": 2481,
      "Ġshown": 2482,
      "Ġproject": 2483,
      "Ġprogress": 2484,
      "ortunity": 2485,
      "Ġ23": 2486,
      "ĠWell": 2487,
      "ĠWater": 2488,
      "Ġnever": 2489,
      "Ġnext": 2490,
      "Ġnote": 2491,
      "Ġnotice": 2492,
      "ĠPac": 2493,
      "ĠPublic": 2494,
      "ĠPSG": 2495,
      "ĠNicotine": 2496,
      "Ġrit": 2497,
      "ĠEating": 2498,
      "index": 2499,
      "ately": 2500,
      "ilar": 2501,
      "ĠBlo": 2502,
      "ĠBreath": 2503,
      "ĠBritish": 2504,
      "ĠOver": 2505,
      "Ġdefic": 2506,
      "Ġdecre": 2507,
      "Ġfeelings": 2508,
      "ĠGood": 2509,
      "ĠFrom": 2510,
      "pects": 2511,
      "idered": 2512,
      "Ġsex": 2513,
      "Ġcomb": 2514,
      "Ġcomes": 2515,
      "Ġ34": 2516,
      "Ġrelations": 2517,
      "aster": 2518,
      "Ġmethod": 2519,
      "raining": 2520,
      "Ġquiet": 2521,
      "Ġcoll": 2522,
      "ĠLun": 2523,
      "Ġvital": 2524,
      "Ġvalerian": 2525,
      "neys": 2526,
      "Ġpartially": 2527,
      "Ġprefer": 2528,
      "rapies": 2529,
      "Ġbrains": 2530,
      "Ġeffectiven": 2531,
      "ards": 2532,
      "Ġbreaths": 2533,
      "ably": 2534,
      "ability": 2535,
      "Ġface": 2536,
      "Ġkeeping": 2537,
      "Ġresources": 2538,
      "Ġnoises": 2539,
      "rowing": 2540,
      "Ġarousals": 2541,
      "Ġrecent": 2542,
      "ĠUse": 2543,
      "Ġlifestyle": 2544,
      "linic": 2545,
      "ĠStage": 2546,
      "Ġ70": 2547,
      "Ġloss": 2548,
      "Ġsuppress": 2549,
      "agnosed": 2550,
      "Ġappl": 2551,
      "Ġappropriate": 2552,
      "Ġdrive": 2553,
      "ternal": 2554,
      "Ġalcoholic": 2555,
      "ledge": 2556,
      "Ġunable": 2557,
      "Ġ2011": 2558,
      "Ġ2015": 2559,
      "Ġrisks": 2560,
      "Ġcommonly": 2561,
      "igned": 2562,
      "Ġclocks": 2563,
      "Ġtrials": 2564,
      "Ġphones": 2565,
      "Ġpharm": 2566,
      "Ġ2005": 2567,
      "Ġrelievers": 2568,
      "Ġtrack": 2569,
      "Ġtraum": 2570,
      "Ġresearchers": 2571,
      "Ġdevelopment": 2572,
      "active": 2573,
      "Ġparasomnias": 2574,
      "Ġawakened": 2575,
      "Ġdidn": 2576,
      "Ġeveryone": 2577,
      "ĠChange": 2578,
      "Ġslower": 2579,
      "such": 2580,
      "Ġchem": 2581,
      "Ġgrowing": 2582,
      "Ġsupplement": 2583,
      "Ġproducts": 2584,
      "Ġexperts": 2585,
      "Ġexperien": 2586,
      "Ġconsider": 2587,
      "Ġconsidered": 2588,
      "ĠEvaluation": 2589,
      "Ġcontinuous": 2590,
      "iency": 2591,
      "Ġintermit": 2592,
      "Ġlimb": 2593,
      "Ġhappen": 2594,
      "ĠWebsite": 2595,
      "Ġadjusting": 2596,
      "ibility": 2597,
      "Ġcola": 2598,
      "Ġstarted": 2599,
      "ĠMedicines": 2600,
      "Ġtissue": 2601,
      "Ġsafety": 2602,
      "Ġthought": 2603,
      "Ġthoughts": 2604,
      "ĠMyths": 2605,
      "Ġrecommended": 2606,
      "Ġpillows": 2607,
      "Ġteen": 2608,
      "Ġnaturally": 2609,
      "Ġuntreated": 2610,
      "Ġprescription": 2611,
      "Ġrespond": 2612,
      "Ġresponse": 2613,
      "Ġmenstru": 2614,
      "Ġasked": 2615,
      "ĠConversation": 2616,
      "Ġperiods": 2617,
      "Ġirregular": 2618,
      "Ġinflu": 2619,
      "Ġstimulant": 2620,
      "Ġstimulants": 2621,
      "Ġsecond": 2622,
      "Ġdrugs": 2623,
      "ĠAddition": 2624,
      "Ġadvance": 2625,
      "Ġadvice": 2626,
      "Ġposition": 2627,
      "Ġappears": 2628,
      "Ġparticipate": 2629,
      "Ġwatching": 2630,
      "Ġlittle": 2631,
      "Ġgroup": 2632,
      "ervous": 2633,
      "Ġcompletely": 2634,
      "Ġtraveling": 2635,
      "Ġbuilds": 2636,
      "Ġfunctioning": 2637,
      "Ġsalt": 2638,
      "Ġcourses": 2639,
      "Ġtowel": 2640,
      "Ġflav": 2641,
      "Ġplay": 2642,
      "ĠRoad": 2643,
      "Ġprocesses": 2644,
      "ĠNew": 2645,
      "Ġclosed": 2646,
      "Ġirritable": 2647,
      "Ġachieve": 2648,
      "Ġcounsel": 2649,
      "Ġmachine": 2650,
      "Ġpractices": 2651,
      "Ġsunlight": 2652,
      "ĠCentered": 2653,
      "ĠDrinking": 2654,
      "ĠRestless": 2655,
      "Ġchallenging": 2656,
      "Ġconcentr": 2657,
      "Ġconsistently": 2658,
      "Ġessential": 2659,
      "Ġestim": 2660,
      "including": 2661,
      "Ġfruits": 2662,
      "Ġpalate": 2663,
      "Ġlaboratory": 2664,
      "ĠSuite": 2665,
      "ĠTransformation": 2666,
      "Ġshallow": 2667,
      "ĠPatient": 2668,
      "ĠIntroduction": 2669,
      "ongestants": 2670,
      "ĠLearning": 2671,
      "ĠAlternatively": 2672,
      "Ġapproach": 2673,
      "Ġuncomfortable": 2674,
      "Ġcardiovascular": 2675,
      "Madison": 2676,
      "bacco": 2677,
      "lamm": 2678,
      "ocretin": 2679,
      "Ġtongue": 2680,
      "Ġopportunity": 2681,
      "Ġhistory": 2682,
      "Ġhosp": 2683,
      "Ġhypocretin": 2684,
      "idepressants": 2685,
      "ĠAffairs": 2686,
      "ĠAcadem": 2687,
      "ĠCultural": 2688,
      "ĠPacific": 2689,
      "ĠBreathing": 2690,
      "Ġdeficiency": 2691,
      "ĠLung": 2692,
      "Ġeffectiveness": 2693,
      "Ġpharmac": 2694,
      "Ġintermittent": 2695,
      ",âĢĿ": 2696,
      "25": 2697,
      "29": 2698,
      "59": 2699,
      "63": 2700,
      "65": 2701,
      "68": 2702,
      "70": 2703,
      "89": 2704,
      "90": 2705,
      "ACT": 2706,
      "CBT": 2707,
      "HA": 2708,
      "How": 2709,
      "IH": 2710,
      "IM": 2711,
      "IN": 2712,
      "MA": 2713,
      "OUR": 2714,
      "PSG": 2715,
      "PIN": 2716,
      "SLT": 2717,
      "TY": 2718,
      "ZE": 2719,
      "aj": 2720,
      "aple": 2721,
      "ared": 2722,
      "acc": 2723,
      "afety": 2724,
      "bar": 2725,
      "bably": 2726,
      "cu": 2727,
      "cal": 2728,
      "cas": 2729,
      "cation": 2730,
      "di": 2731,
      "down": 2732,
      "ez": 2733,
      "ech": 2734,
      "fif": 2735,
      "fined": 2736,
      "gen": 2737,
      "ged": 2738,
      "ht": 2739,
      "hood": 2740,
      "hib": 2741,
      "hale": 2742,
      "hydr": 2743,
      "hips": 2744,
      "hydrated": 2745,
      "iat": 2746,
      "ired": 2747,
      "lar": 2748,
      "long": 2749,
      "last": 2750,
      "lming": 2751,
      "man": 2752,
      "mind": 2753,
      "nk": 2754,
      "nger": 2755,
      "nog": 2756,
      "oke": 2757,
      "old": 2758,
      "pan": 2759,
      "par": 2760,
      "pare": 2761,
      "place": 2762,
      "qi": 2763,
      "ring": 2764,
      "ran": 2765,
      "sis": 2766,
      "som": 2767,
      "shes": 2768,
      "shed": 2769,
      "ton": 2770,
      "tress": 2771,
      "ues": 2772,
      "use": 2773,
      "uary": 2774,
      "va": 2775,
      "vis": 2776,
      "wal": 2777,
      "zed": 2778,
      "âŀ": 2779,
      "Ġ$": 2780,
      "Ġ0": 2781,
      "Ġ=": 2782,
      "ĠQ": 2783,
      "Ġve": 2784,
      "Ġent": 2785,
      "Ġqi": 2786,
      "Ġâŀ": 2787,
      "Ġting": 2788,
      "Ġtur": 2789,
      "Ġtalking": 2790,
      "Ġaerobic": 2791,
      "insomnia": 2792,
      "inated": 2793,
      "Ġshe": 2794,
      "Ġsou": 2795,
      "Ġsay": 2796,
      "Ġset": 2797,
      "Ġscre": 2798,
      "Ġslight": 2799,
      "lev": 2800,
      "lear": 2801,
      "head": 2802,
      "herapy": 2803,
      "reshed": 2804,
      "Ġold": 2805,
      "Ġoper": 2806,
      "ator": 2807,
      "ataple": 2808,
      "ert": 2809,
      "Ġbit": 2810,
      "Ġbur": 2811,
      "Ġbag": 2812,
      "Ġblan": 2813,
      "Ġbillion": 2814,
      "Ġbreathe": 2815,
      "Ġwa": 2816,
      "Ġwaking": 2817,
      "orter": 2818,
      "orking": 2819,
      "Ġcre": 2820,
      "Ġcut": 2821,
      "Ġcome": 2822,
      "Ġcame": 2823,
      "Ġclinic": 2824,
      "nding": 2825,
      "ndom": 2826,
      "Ġmg": 2827,
      "Ġmart": 2828,
      "Ġmine": 2829,
      "Ġmist": 2830,
      "Ġmother": 2831,
      "Ġmix": 2832,
      "Ġmillion": 2833,
      "Ġmanage": 2834,
      "Ġded": 2835,
      "Ġdent": 2836,
      "Ġdest": 2837,
      "aller": 2838,
      "esium": 2839,
      "Ġyoung": 2840,
      "Ġyounger": 2841,
      "Ġfurther": 2842,
      "Ġflex": 2843,
      "Ġfaster": 2844,
      "ences": 2845,
      "Ġpr": 2846,
      "Ġput": 2847,
      "Ġpack": 2848,
      "Ġpast": 2849,
      "Ġpla": 2850,
      "Ġpass": 2851,
      "Ġpublic": 2852,
      "Ġpsychological": 2853,
      "itam": 2854,
      "itals": 2855,
      "ang": 2856,
      "aning": 2857,
      "anges": 2858,
      "anced": 2859,
      "anuary": 2860,
      "edu": 2861,
      "eder": 2862,
      "Ġoffic": 2863,
      "Ġnature": 2864,
      "Ġnasal": 2865,
      "Ġnervous": 2866,
      "Ġindu": 2867,
      "Ġinduce": 2868,
      "Ġinade": 2869,
      "Ġinapp": 2870,
      "Ġinability": 2871,
      "arp": 2872,
      "arch": 2873,
      "arts": 2874,
      "Ġhig": 2875,
      "Ġhum": 2876,
      "Ġhips": 2877,
      "Ġhydrated": 2878,
      "icated": 2879,
      "Ġlat": 2880,
      "Ġlie": 2881,
      "Ġbever": 2882,
      "lysom": 2883,
      "Ġreco": 2884,
      "Ġrepe": 2885,
      "Ġreach": 2886,
      "ionally": 2887,
      "see": 2888,
      "imize": 2889,
      "ĠShe": 2890,
      "ĠSur": 2891,
      "ĠSever": 2892,
      "ĠSign": 2893,
      "ĠSuch": 2894,
      "ĠSZE": 2895,
      "ĠSafety": 2896,
      "Ġorig": 2897,
      "Ġorgan": 2898,
      "entually": 2899,
      "ĠTw": 2900,
      "ĠTime": 2901,
      "ĠTyp": 2902,
      "ĠTips": 2903,
      "Ġgot": 2904,
      "Ġgive": 2905,
      "Ġgru": 2906,
      "Ġgong": 2907,
      "Ġgives": 2908,
      "Ġglass": 2909,
      "Ġguid": 2910,
      "rosis": 2911,
      "Ġisn": 2912,
      "ths": 2913,
      "thy": 2914,
      "thood": 2915,
      "thrit": 2916,
      "Ġaspects": 2917,
      "Ġheav": 2918,
      "Ġhealing": 2919,
      "ets": 2920,
      "etite": 2921,
      "ides": 2922,
      "Ġstom": 2923,
      "Ġstore": 2924,
      "Ġstate": 2925,
      "Ġstand": 2926,
      "urons": 2927,
      "chiat": 2928,
      "ulthood": 2929,
      "Ġonce": 2930,
      "plement": 2931,
      "Ġwhite": 2932,
      "ĠAt": 2933,
      "ĠAre": 2934,
      "ĠAll": 2935,
      "ĠAss": 2936,
      "ĠAnt": 2937,
      "ĠAfter": 2938,
      "Ġarea": 2939,
      "asant": 2940,
      "oural": 2941,
      "ourneys": 2942,
      "ĠSleepio": 2943,
      "terone": 2944,
      "ĠHigh": 2945,
      "ĠHygiene": 2946,
      "Ġalong": 2947,
      "Ġaller": 2948,
      "ĠMD": 2949,
      "ĠMond": 2950,
      "ĠMSLT": 2951,
      "Ġleave": 2952,
      "Ġleng": 2953,
      "lds": 2954,
      "Ġsudd": 2955,
      "aging": 2956,
      "agers": 2957,
      "elt": 2958,
      "utic": 2959,
      "utive": 2960,
      "rive": 2961,
      "ĠDream": 2962,
      "ĠDeep": 2963,
      "ĠRem": 2964,
      "Ġdocu": 2965,
      "quar": 2966,
      "Ġshorter": 2967,
      "Ġsharp": 2968,
      "Ġproduce": 2969,
      "Ġprofess": 2970,
      "Ġprolong": 2971,
      "Ġ21": 2972,
      "Ġ29": 2973,
      "Ġnear": 2974,
      "Ġneuro": 2975,
      "Ġneurons": 2976,
      "Ġnotic": 2977,
      "ffeinated": 2978,
      "Ġchi": 2979,
      "Ġcharge": 2980,
      "Ġchoking": 2981,
      "Ġchocolate": 2982,
      "ĠPain": 2983,
      "Ġfear": 2984,
      "Ġadren": 2985,
      "Ġadulthood": 2986,
      "ordination": 2987,
      "ĠNow": 2988,
      "ĠNaps": 2989,
      "ĠNumber": 2990,
      "ĠNIH": 2991,
      "Ġrise": 2992,
      "Ġrange": 2993,
      "Ġhelping": 2994,
      "Ġhelpful": 2995,
      "Ġwors": 2996,
      "Ġworse": 2997,
      "Ġworth": 2998,
      "Ġworries": 2999,
      "ads": 3000,
      "estion": 3001,
      "ptoph": 3002,
      "Ġcongest": 3003,
      "amine": 3004,
      "amines": 3005,
      "ĠEs": 3006,
      "ĠEmail": 3007,
      "ĠBo": 3008,
      "ĠBed": 3009,
      "ĠBel": 3010,
      "ĠBright": 3011,
      "ĠOK": 3012,
      "ĠOri": 3013,
      "ĠOften": 3014,
      "Ġdefined": 3015,
      "Ġdehydrated": 3016,
      "ĠGo": 3017,
      "ĠGuid": 3018,
      "ĠFre": 3019,
      "ĠFamily": 3020,
      "ĠFACT": 3021,
      "Ġworking": 3022,
      "ĠHere": 3023,
      "Ġ33": 3024,
      "Ġ35": 3025,
      "Ġ38": 3026,
      "Ġabnormal": 3027,
      "Ġothers": 3028,
      "Ġmoving": 3029,
      "Ġmoves": 3030,
      "ĠThus": 3031,
      "Ġwellness": 3032,
      "Ġimpair": 3033,
      "Ġmust": 3034,
      "Ġincor": 3035,
      "Ġmeal": 3036,
      "ildren": 3037,
      "Ġsocial": 3038,
      "Ġcond": 3039,
      "Ġcool": 3040,
      "Ġcosts": 3041,
      "ĠLA": 3042,
      "ĠLag": 3043,
      "Ġvis": 3044,
      "Ġvivid": 3045,
      "Ġvacc": 3046,
      "Ġvitam": 3047,
      "Ġbetray": 3048,
      "perts": 3049,
      "Ġoverwhe": 3050,
      "Ġpregn": 3051,
      "Ġprepare": 3052,
      "Ġuses": 3053,
      "Ġcontra": 3054,
      "rences": 3055,
      "raph": 3056,
      "Ġperhaps": 3057,
      "Ġ54": 3058,
      "Ġ56": 3059,
      "Ġpoint": 3060,
      "Ġgoal": 3061,
      "Ġcaffeinated": 3062,
      "Ġevalu": 3063,
      "Ġchildhood": 3064,
      "ables": 3065,
      "Ġ44": 3066,
      "Ġrestore": 3067,
      "Ġrestric": 3068,
      "Ġrestorative": 3069,
      "ellow": 3070,
      "Ġairflow": 3071,
      "Ġfact": 3072,
      "Ġspec": 3073,
      "Ġtryptoph": 3074,
      "Ġarts": 3075,
      "Ġarthrit": 3076,
      "Ġallow": 3077,
      "ĠUs": 3078,
      "Ġsymptom": 3079,
      "Ġfinding": 3080,
      "ĠStress": 3081,
      "ĠStates": 3082,
      "ĠStreng": 3083,
      "Ġstressed": 3084,
      "Ġexercises": 3085,
      "Ġexercising": 3086,
      "Ġaffecting": 3087,
      "agnesium": 3088,
      "Ġincreasing": 3089,
      "okers": 3090,
      "Ġappetite": 3091,
      "Ġdrivers": 3092,
      "Ġpatients": 3093,
      "ĠJet": 3094,
      "ĠJust": 3095,
      "ĠJIM": 3096,
      "ĠJanuary": 3097,
      "havioural": 3098,
      "Ġsports": 3099,
      "Ġunw": 3100,
      "Ġunre": 3101,
      "Ġpainful": 3102,
      "Ġrelaxed": 3103,
      "Ġsnores": 3104,
      "Ġtrial": 3105,
      "search": 3106,
      "amples": 3107,
      "Ġknows": 3108,
      "Ġphone": 3109,
      "Ġfewer": 3110,
      "Ġtendency": 3111,
      "Ġimproving": 3112,
      "Ġimproved": 3113,
      "ĠCommunity": 3114,
      "Ġshortly": 3115,
      "acting": 3116,
      "lugs": 3117,
      "thening": 3118,
      "Ġremove": 3119,
      "Ġremedies": 3120,
      "Ġadding": 3121,
      "Ġawakening": 3122,
      "Ġdisrupted": 3123,
      "Ġdisruption": 3124,
      "ĠEnvironment": 3125,
      "Ġsupportive": 3126,
      "Ġsmaller": 3127,
      "Ġsmokers": 3128,
      "atural": 3129,
      "Ġeasy": 3130,
      "Ġunderlying": 3131,
      "ĠChildren": 3132,
      "ĠExec": 3133,
      "ĠExperts": 3134,
      "ĠExamples": 3135,
      "Ġslowly": 3136,
      "Ġdreaming": 3137,
      "Ġrefresh": 3138,
      "Ġaccount": 3139,
      "Ġchest": 3140,
      "ĠTherefore": 3141,
      "Ġproduct": 3142,
      "Ġproduces": 3143,
      "ĠEvidence": 3144,
      "Ġcomplain": 3145,
      "Ġcompared": 3146,
      "Ġcontinues": 3147,
      "Ġcareful": 3148,
      "Ġpersonal": 3149,
      "Ġraise": 3150,
      "Ġrandom": 3151,
      "Ġinterrupt": 3152,
      "ĠOthers": 3153,
      "Ġdeeper": 3154,
      "apse": 3155,
      "meg": 3156,
      "Ġcolor": 3157,
      "Ġcoloring": 3158,
      "Ġmouthpie": 3159,
      "ificial": 3160,
      "Ġprevious": 3161,
      "Ġprevale": 3162,
      "Ġlearned": 3163,
      "Ġimprovement": 3164,
      "Ġdespite": 3165,
      "Ġdesigned": 3166,
      "Ġlasts": 3167,
      "Ġcalming": 3168,
      "Ġsubstitute": 3169,
      "Ġteas": 3170,
      "Ġrespons": 3171,
      "ĠKeeping": 3172,
      "Ġreported": 3173,
      "Ġsites": 3174,
      "Ġsitting": 3175,
      "Ġbalanced": 3176,
      "Ġmentalhealth": 3177,
      "Ġemp": 3178,
      "Ġgeneral": 3179,
      "Ġhabit": 3180,
      "Ġleads": 3181,
      "ĠConsequent": 3182,
      "ĠRev": 3183,
      "ĠRegular": 3184,
      "ĠNotes": 3185,
      "Ġcreates": 3186,
      "Ġcreative": 3187,
      "Ġmattress": 3188,
      "Ġmemories": 3189,
      "Ġdeprive": 3190,
      "Ġdrug": 3191,
      "Ġdrunk": 3192,
      "ĠDiary": 3193,
      "Ġkinds": 3194,
      "Ġparticipation": 3195,
      "Ġbenefit": 3196,
      "which": 3197,
      "Ġliters": 3198,
      "ĠGetting": 3199,
      "Ġenvironmental": 3200,
      "Ġpartners": 3201,
      "Ġbecoming": 3202,
      "Ġrapidly": 3203,
      "Ġcrashes": 3204,
      "Ġfluids": 3205,
      "ĠArt": 3206,
      "Ġprovide": 3207,
      "Ġextremely": 3208,
      "Ġpresent": 3209,
      "Ġpresence": 3210,
      "Ġchecking": 3211,
      "Ġmonitoring": 3212,
      "Ġmonitored": 3213,
      "Ġhandouts": 3214,
      "rimary": 3215,
      "rimination": 3216,
      "Ġsalts": 3217,
      "Ġcourse": 3218,
      "Ġinsight": 3219,
      "Ġelse": 3220,
      "ĠShift": 3221,
      "Ġanti": 3222,
      "Ġdecongestants": 3223,
      "ĠUnited": 3224,
      "Ġhyperactivity": 3225,
      "Ġbreaks": 3226,
      "bohydr": 3227,
      "mpy": 3228,
      "Ġbigger": 3229,
      "Ġpotential": 3230,
      "ĠSpecialist": 3231,
      "ĠMindfulness": 3232,
      "Ġproteins": 3233,
      "ĠWithout": 3234,
      "ĠLegs": 3235,
      "737": 3236,
      "contin": 3237,
      "ggle": 3238,
      "ociation": 3239,
      "Ġzone": 3240,
      "Ġserious": 3241,
      "Ġbottom": 3242,
      "Ġwritten": 3243,
      "Ġmassaging": 3244,
      "Ġnarrowing": 3245,
      "Ġinvolved": 3246,
      "Ġbelly": 3247,
      "Ġelectronic": 3248,
      "ĠSyndrome": 3249,
      "Ġalmost": 3250,
      "Ġproperly": 3251,
      "ĠPhys": 3252,
      "Ġconnection": 3253,
      "ĠFoods": 3254,
      "Ġdirectly": 3255,
      "Ġarms": 3256,
      "Ġoccasional": 3257,
      "Ġtemporary": 3258,
      "Ġindividuals": 3259,
      "Ġscientific": 3260,
      "Ġtiming": 3261,
      "Ġcortisol": 3262,
      "Ġmentally": 3263,
      "Ġeffort": 3264,
      "ĠHEAL": 3265,
      "ĠMovement": 3266,
      "Ġsuccessful": 3267,
      "utrition": 3268,
      "Ġattack": 3269,
      "Ġanswer": 3270,
      "Ġdistinct": 3271,
      "ĠBlood": 3272,
      "Ġrelationships": 3273,
      "Ġcollapse": 3274,
      "Ġchemical": 3275,
      "Ġteenagers": 3276,
      "Ġmenstrual": 3277,
      "Ġinfluence": 3278,
      "ĠAdditionally": 3279,
      "Ġcounselor": 3280,
      "Ġconcentrating": 3281,
      "Ġhospitals": 3282,
      "ĠAcademy": 3283,
      "PING": 3284,
      "fifth": 3285,
      "htm": 3286,
      "larged": 3287,
      "nogram": 3288,
      "Ġâŀ¢": 3289,
      "Ġtingling": 3290,
      "ataplexy": 3291,
      "Ġblanke": 3292,
      "Ġmartial": 3293,
      "Ġdedicated": 3294,
      "Ġdentist": 3295,
      "Ġinadequate": 3296,
      "Ġinappropriate": 3297,
      "Ġhigher": 3298,
      "Ġbeverages": 3299,
      "lysomnogram": 3300,
      "ĠSeveral": 3301,
      "ĠSigns": 3302,
      "Ġorigin": 3303,
      "Ġgrumpy": 3304,
      "Ġheavy": 3305,
      "ĠAssociation": 3306,
      "Ġallergies": 3307,
      "ĠMonday": 3308,
      "Ġsudden": 3309,
      "Ġprofessional": 3310,
      "Ġadrenal": 3311,
      "ĠGuided": 3312,
      "Ġvaccine": 3313,
      "Ġvitamin": 3314,
      "Ġoverwhelming": 3315,
      "Ġrestriction": 3316,
      "Ġtryptophan": 3317,
      "Ġarthritis": 3318,
      "ĠExecutive": 3319,
      "Ġmouthpiece": 3320,
      "ĠConsequently": 3321,
      "bohydrates": 3322,
      "'s": 3323,
      "18": 3324,
      "113": 3325,
      "23": 3326,
      "36": 3327,
      "38": 3328,
      "55": 3329,
      "61": 3330,
      "64": 3331,
      "71": 3332,
      "88": 3333,
      "856": 3334,
      "AN": 3335,
      "AR": 3336,
      "Ab": 3337,
      "BS": 3338,
      "CI": 3339,
      "Com": 3340,
      "CPAP": 3341,
      "For": 3342,
      "FOR": 3343,
      "FES": 3344,
      "HO": 3345,
      "IR": 3346,
      "In": 3347,
      "Is": 3348,
      "IFES": 3349,
      "LMS": 3350,
      "MEN": 3351,
      "NV": 3352,
      "NHLBI": 3353,
      "NFOR": 3354,
      "OU": 3355,
      "PP": 3356,
      "Ref": 3357,
      "RLS": 3358,
      "So": 3359,
      "Sample": 3360,
      "TE": 3361,
      "TH": 3362,
      "TU": 3363,
      "TTI": 3364,
      "Wide": 3365,
      "When": 3366,
      "WHO": 3367,
      "Yes": 3368,
      "ah": 3369,
      "ais": 3370,
      "aas": 3371,
      "ace": 3372,
      "ache": 3373,
      "by": 3374,
      "bal": 3375,
      "bers": 3376,
      "born": 3377,
      "cl": 3378,
      "cer": 3379,
      "cul": 3380,
      "cci": 3381,
      "cum": 3382,
      "clinical": 3383,
      "cap": 3384,
      "da": 3385,
      "do": 3386,
      "dep": 3387,
      "des": 3388,
      "dis": 3389,
      "dra": 3390,
      "eed": 3391,
      "fit": 3392,
      "found": 3393,
      "fun": 3394,
      "free": 3395,
      "fric": 3396,
      "flamm": 3397,
      "gers": 3398,
      "gust": 3399,
      "gnitive": 3400,
      "hs": 3401,
      "hing": 3402,
      "hist": 3403,
      "ipe": 3404,
      "iance": 3405,
      "iately": 3406,
      "kn": 3407,
      "lice": 3408,
      "may": 3409,
      "more": 3410,
      "mber": 3411,
      "made": 3412,
      "mnet": 3413,
      "magery": 3414,
      "ner": 3415,
      "now": 3416,
      "nce": 3417,
      "narcolepsy": 3418,
      "naling": 3419,
      "natural": 3420,
      "oor": 3421,
      "oice": 3422,
      "onds": 3423,
      "olol": 3424,
      "olysomnogram": 3425,
      "pl": 3426,
      "pro": 3427,
      "pers": 3428,
      "phen": 3429,
      "plan": 3430,
      "public": 3431,
      "pamine": 3432,
      "pipe": 3433,
      "polysomnogram": 3434,
      "rs": 3435,
      "round": 3436,
      "rls": 3437,
      "sit": 3438,
      "siness": 3439,
      "snoring": 3440,
      "serv": 3441,
      "to": 3442,
      "tu": 3443,
      "tur": 3444,
      "ties": 3445,
      "tist": 3446,
      "tok": 3447,
      "tents": 3448,
      "top": 3449,
      "uc": 3450,
      "ule": 3451,
      "ued": 3452,
      "uct": 3453,
      "uage": 3454,
      "uations": 3455,
      "uber": 3456,
      "ugust": 3457,
      "vation": 3458,
      "vved": 3459,
      "wa": 3460,
      "with": 3461,
      "ward": 3462,
      "water": 3463,
      "wling": 3464,
      "yro": 3465,
      "ybe": 3466,
      "yzed": 3467,
      "Ġ*": 3468,
      "Ġ@": 3469,
      "ĠZ": 3470,
      "Ġill": 3471,
      "Ġerr": 3472,
      "Ġtre": 3473,
      "Ġter": 3474,
      "Ġties": 3475,
      "Ġtrain": 3476,
      "Ġtable": 3477,
      "Ġtens": 3478,
      "Ġtai": 3479,
      "Ġtighten": 3480,
      "Ġapt": 3481,
      "infor": 3482,
      "inery": 3483,
      "inner": 3484,
      "Ġsep": 3485,
      "Ġsen": 3486,
      "Ġsore": 3487,
      "Ġsel": 3488,
      "Ġsimul": 3489,
      "Ġsources": 3490,
      "Ġslice": 3491,
      "ley": 3492,
      "leased": 3493,
      "here": 3494,
      "reet": 3495,
      "read": 3496,
      "rent": 3497,
      "resc": 3498,
      "retin": 3499,
      "research": 3500,
      "revved": 3501,
      "Ġoats": 3502,
      "eping": 3503,
      "atn": 3504,
      "atab": 3505,
      "atherapy": 3506,
      "erve": 3507,
      "erves": 3508,
      "eroids": 3509,
      "Ġbl": 3510,
      "Ġbol": 3511,
      "Ġboring": 3512,
      "Ġbio": 3513,
      "Ġbased": 3514,
      "Ġbring": 3515,
      "Ġwar": 3516,
      "Ġwine": 3517,
      "Ġwest": 3518,
      "Ġwild": 3519,
      "Ġwife": 3520,
      "inger": 3521,
      "orth": 3522,
      "orous": 3523,
      "Ġcou": 3524,
      "Ġcit": 3525,
      "Ġcall": 3526,
      "Ġcatch": 3527,
      "Ġcott": 3528,
      "Ġclear": 3529,
      "Ġmom": 3530,
      "Ġmic": 3531,
      "Ġmember": 3532,
      "Ġdam": 3533,
      "Ġdiv": 3534,
      "Ġdys": 3535,
      "Ġdental": 3536,
      "Ġtherapies": 3537,
      "online": 3538,
      "ontist": 3539,
      "alg": 3540,
      "alp": 3541,
      "also": 3542,
      "alyzed": 3543,
      "ese": 3544,
      "espite": 3545,
      "Ġtop": 3546,
      "Ġtoget": 3547,
      "Ġtobacco": 3548,
      "Ġyellow": 3549,
      "ision": 3550,
      "isod": 3551,
      "isation": 3552,
      "ispan": 3553,
      "Ġsleepier": 3554,
      "Ġfit": 3555,
      "Ġfut": 3556,
      "Ġfri": 3557,
      "Ġfill": 3558,
      "Ġfil": 3559,
      "Ġfig": 3560,
      "Ġfie": 3561,
      "Ġfib": 3562,
      "Ġfish": 3563,
      "enetic": 3564,
      "Ġpel": 3565,
      "Ġpri": 3566,
      "Ġpil": 3567,
      "Ġputs": 3568,
      "Ġplugs": 3569,
      "Ġprimary": 3570,
      "Ġpuber": 3571,
      "itud": 3572,
      "ittle": 3573,
      "ane": 3574,
      "analysis": 3575,
      "eded": 3576,
      "Ġnum": 3577,
      "Ġnarco": 3578,
      "Ġnational": 3579,
      "Ġnuts": 3580,
      "Ġinher": 3581,
      "Ġinsu": 3582,
      "Ġinternal": 3583,
      "arity": 3584,
      "arate": 3585,
      "arasomnias": 3586,
      "Ġhon": 3587,
      "Ġhim": 3588,
      "Ġthing": 3589,
      "Ġthir": 3590,
      "Ġthus": 3591,
      "icles": 3592,
      "âĢ¢": 3593,
      "vey": 3594,
      "veys": 3595,
      "vember": 3596,
      "Ġlay": 3597,
      "Ġlow": 3598,
      "Ġline": 3599,
      "Ġlives": 3600,
      "Ġlaw": 3601,
      "Ġlying": 3602,
      "Ġbear": 3603,
      "Ġbeans": 3604,
      "Ġbelow": 3605,
      "Ġbeverage": 3606,
      "Ġbemind": 3607,
      "Ġreinfor": 3608,
      "Ġreleased": 3609,
      "Ġeast": 3610,
      "Ġempt": 3611,
      "Ġelder": 3612,
      "Ġelev": 3613,
      "sequ": 3614,
      "imming": 3615,
      "iminate": 3616,
      "imbing": 3617,
      "ĠSm": 3618,
      "ĠSo": 3619,
      "ĠSim": 3620,
      "ĠSud": 3621,
      "ĠSci": 3622,
      "ĠSchedu": 3623,
      "ĠSometimes": 3624,
      "ĠSoci": 3625,
      "cture": 3626,
      "Ġorthod": 3627,
      "sty": 3628,
      "stage": 3629,
      "stant": 3630,
      "ently": 3631,
      "entif": 3632,
      "entially": 3633,
      "ĠTI": 3634,
      "ĠTO": 3635,
      "ĠTreat": 3636,
      "ĠTalk": 3637,
      "ĠTaking": 3638,
      "ĠTog": 3639,
      "ĠTop": 3640,
      "ĠTHE": 3641,
      "Ġgre": 3642,
      "Ġgro": 3643,
      "Ġgone": 3644,
      "Ġgasp": 3645,
      "Ġgentle": 3646,
      "Ġground": 3647,
      "ĠIL": 3648,
      "ĠImp": 3649,
      "ĠINFOR": 3650,
      "ĠImagery": 3651,
      "llo": 3652,
      "roving": 3653,
      "rogen": 3654,
      "thasone": 3655,
      "Ġhaz": 3656,
      "Ġhaven": 3657,
      "Ġhere": 3658,
      "Ġheighten": 3659,
      "Ġuvul": 3660,
      "ether": 3661,
      "ided": 3662,
      "ideo": 3663,
      "idine": 3664,
      "Ġforce": 3665,
      "Ġforties": 3666,
      "orer": 3667,
      "Ġstri": 3668,
      "Ġstick": 3669,
      "Ġstreng": 3670,
      "Ġstarts": 3671,
      "Ġsteroids": 3672,
      "rag": 3673,
      "rass": 3674,
      "rape": 3675,
      "radu": 3676,
      "rame": 3677,
      "rash": 3678,
      "changes": 3679,
      "ifts": 3680,
      "ifically": 3681,
      "ifestyle": 3682,
      "ified": 3683,
      "Ġonline": 3684,
      "Ġonset": 3685,
      "pleasant": 3686,
      "ĠAnd": 3687,
      "ĠAir": 3688,
      "ĠApnoea": 3689,
      "ĠATTI": 3690,
      "ĠAfric": 3691,
      "ĠAugust": 3692,
      "Ġaren": 3693,
      "ascular": 3694,
      "ournaling": 3695,
      "verse": 3696,
      "irit": 3697,
      "Ġweird": 3698,
      "ssential": 3699,
      "term": 3700,
      "ĠHorm": 3701,
      "ĠHab": 3702,
      "ĠHydr": 3703,
      "ĠHispan": 3704,
      "Ġalive": 3705,
      "Ġaltern": 3706,
      "Ġalarm": 3707,
      "Ġalthough": 3708,
      "Ġnightly": 3709,
      "ĠMood": 3710,
      "ĠMem": 3711,
      "ĠMus": 3712,
      "ĠMorning": 3713,
      "ĠMoving": 3714,
      "ĠManage": 3715,
      "Ġlemon": 3716,
      "Ġlepsy": 3717,
      "Ġleft": 3718,
      "Ġity": 3719,
      "Ġitself": 3720,
      "lded": 3721,
      "Ġsuff": 3722,
      "Ġwithdra": 3723,
      "cell": 3724,
      "ĠCan": 3725,
      "ĠCar": 3726,
      "ĠCau": 3727,
      "ĠCol": 3728,
      "ĠCons": 3729,
      "ĠCBT": 3730,
      "elids": 3731,
      "ferences": 3732,
      "ckers": 3733,
      "ckledge": 3734,
      "utions": 3735,
      "ried": 3736,
      "rived": 3737,
      "ribe": 3738,
      "ĠDI": 3739,
      "ĠDO": 3740,
      "ĠDay": 3741,
      "ĠDise": 3742,
      "ĠDespite": 3743,
      "ĠTheir": 3744,
      "loy": 3745,
      "Ġanem": 3746,
      "Ġ17": 3747,
      "Ġ101": 3748,
      "Ġdistur": 3749,
      "Ġdaylight": 3750,
      "ĠYOU": 3751,
      "eaking": 3752,
      "Ġdopamine": 3753,
      "quality": 3754,
      "Ġshifts": 3755,
      "Ġproges": 3756,
      "Ġproced": 3757,
      "Ġprogram": 3758,
      "Ġ26": 3759,
      "Ġ28": 3760,
      "ĠWorking": 3761,
      "ĠWhere": 3762,
      "Ġnotes": 3763,
      "Ġchron": 3764,
      "ĠPlease": 3765,
      "ĠPark": 3766,
      "ĠPract": 3767,
      "ĠPsychological": 3768,
      "ĠParasomnias": 3769,
      "Ġfee": 3770,
      "Ġexhale": 3771,
      "Ġadult": 3772,
      "Ġadverse": 3773,
      "ĠNW": 3774,
      "ĠNone": 3775,
      "ĠNormal": 3776,
      "ĠNutrition": 3777,
      "ĠNorth": 3778,
      "Ġrule": 3779,
      "Ġhelped": 3780,
      "mental": 3781,
      "Ġworn": 3782,
      "Ġwhose": 3783,
      "adine": 3784,
      "esting": 3785,
      "pted": 3786,
      "Ġconsequ": 3787,
      "Ġconstant": 3788,
      "amom": 3789,
      "ĠEy": 3790,
      "ĠEat": 3791,
      "ĠElect": 3792,
      "ĠENV": 3793,
      "ĠEssential": 3794,
      "pping": 3795,
      "pped": 3796,
      "ĠBu": 3797,
      "ĠBest": 3798,
      "coffee": 3799,
      "ressed": 3800,
      "romise": 3801,
      "romagn": 3802,
      "romatherapy": 3803,
      "ĠIntern": 3804,
      "ĠInclud": 3805,
      "ĠOlder": 3806,
      "ĠOmeg": 3807,
      "Ġfeels": 3808,
      "ĠGentle": 3809,
      "ĠGradu": 3810,
      "ĠFurther": 3811,
      "ĠFeder": 3812,
      "Ġworked": 3813,
      "Ġworkplace": 3814,
      "rus": 3815,
      "Ġimag": 3816,
      "Ġimages": 3817,
      "Ġimmed": 3818,
      "Ġimagery": 3819,
      "iving": 3820,
      "Ġencoura": 3821,
      "Ġenlarged": 3822,
      "Ġsection": 3823,
      "Ġselect": 3824,
      "Ġsearch": 3825,
      "Ġcomple": 3826,
      "Ġ31": 3827,
      "Ġ32": 3828,
      "Ġabrupt": 3829,
      "Ġabove": 3830,
      "Ġrelative": 3831,
      "Ġdip": 3832,
      "istance": 3833,
      "Ġmov": 3834,
      "Ġmoon": 3835,
      "aste": 3836,
      "Ġsyrup": 3837,
      "Ġkid": 3838,
      "Ġkept": 3839,
      "Ġmeaning": 3840,
      "Ġquite": 3841,
      "Ġsoon": 3842,
      "Ġsooth": 3843,
      "Ġcost": 3844,
      "Ġcoping": 3845,
      "Ġcoordination": 3846,
      "Ġcognitive": 3847,
      "Ġhealthier": 3848,
      "ĠLong": 3849,
      "ĠList": 3850,
      "ĠLoud": 3851,
      "ĠLIFES": 3852,
      "ĠLTH": 3853,
      "ĠLittle": 3854,
      "Ġvig": 3855,
      "Ġvary": 3856,
      "Ġvib": 3857,
      "Ġview": 3858,
      "Ġvideo": 3859,
      "Ġvascular": 3860,
      "fulonline": 3861,
      "iles": 3862,
      "ief": 3863,
      "Ġoverly": 3864,
      "Ġoversc": 3865,
      "Ġoveractive": 3866,
      "atedly": 3867,
      "Ġpartial": 3868,
      "ulty": 3869,
      "gered": 3870,
      "ĠWhy": 3871,
      "formed": 3872,
      "ended": 3873,
      "ficit": 3874,
      "Ġpermit": 3875,
      "âĢĿ).": 3876,
      "Ġ51": 3877,
      "Ġ53": 3878,
      "Ġ57": 3879,
      "Ġ58": 3880,
      "Ġpoorer": 3881,
      "scle": 3882,
      "Ġactual": 3883,
      "Ġcase": 3884,
      "Ġwakefulness": 3885,
      "axing": 3886,
      "ustom": 3887,
      "Ġoutdo": 3888,
      "Ġanyone": 3889,
      "Ġkey": 3890,
      "Ġ40": 3891,
      "Ġ41": 3892,
      "Ġ45": 3893,
      "Ġ47": 3894,
      "Ġ48": 3895,
      "Ġ401": 3896,
      "Ġjer": 3897,
      "Ġjaw": 3898,
      "Ġjournaling": 3899,
      "about": 3900,
      "Ġlightly": 3901,
      "unning": 3902,
      "Ġspecially": 3903,
      "ched": 3904,
      "chester": 3905,
      "osing": 3906,
      "osition": 3907,
      "Ġmins": 3908,
      "Ġminute": 3909,
      "rowave": 3910,
      "Ġrecall": 3911,
      "Ġmostly": 3912,
      "ĠUK": 3913,
      "ĠUpd": 3914,
      "ĠAlcohol": 3915,
      "Ġimportance": 3916,
      "Ġhormonal": 3917,
      "ĠState": 3918,
      "ĠStick": 3919,
      "ĠStrate": 3920,
      "Ġlog": 3921,
      "Ġlove": 3922,
      "Ġlocal": 3923,
      "Ġsupplier": 3924,
      "Ġsupports": 3925,
      "Ġapplying": 3926,
      "Ġdepressed": 3927,
      "Ġdried": 3928,
      "Ġamong": 3929,
      "Ġamoun": 3930,
      "Ġ630": 3931,
      "Ġspeak": 3932,
      "Ġfool": 3933,
      "Ġfolded": 3934,
      "Ġfree": 3935,
      "Ġfresh": 3936,
      "Ġunless": 3937,
      "Ġunplan": 3938,
      "Ġunpleasant": 3939,
      "logi": 3940,
      "Ġ2012": 3941,
      "Ġ2018": 3942,
      "gests": 3943,
      "ĠResources": 3944,
      "Ġsnorers": 3945,
      "tains": 3946,
      "Ġtwice": 3947,
      "Ġtrip": 3948,
      "Ġknowledge": 3949,
      "havioral": 3950,
      "nditions": 3951,
      "Ġmindful": 3952,
      "Ġ202": 3953,
      "Ġ2001": 3954,
      "Ġrelief": 3955,
      "Ġrelieving": 3956,
      "Ġtends": 3957,
      "Ġbehaviors": 3958,
      "Ġimproves": 3959,
      "beer": 3960,
      "Ġtraffic": 3961,
      "Ġtradition": 3962,
      "Ġpersists": 3963,
      "Ġpersistent": 3964,
      "ĠComplete": 3965,
      "ĠComplement": 3966,
      "ĠBeing": 3967,
      "ĠBehavioural": 3968,
      "1001": 3969,
      "1089": 3970,
      "actly": 3971,
      "ĠKnow": 3972,
      "Ġtroubles": 3973,
      "Ġparts": 3974,
      "Ġparalyzed": 3975,
      "Ġremind": 3976,
      "Ġremain": 3977,
      "Ġsuggests": 3978,
      "ĠVHA": 3979,
      "Ġrepay": 3980,
      "Ġrepair": 3981,
      "ĠTobacco": 3982,
      "Ġsubject": 3983,
      "Ġsupported": 3984,
      "Ġsignals": 3985,
      "lers": 3986,
      "Ġpossibility": 3987,
      "clear": 3988,
      "Ġtypical": 3989,
      "Ġavoiding": 3990,
      "Ġslows": 3991,
      "Ġcytok": 3992,
      "Ġfirm": 3993,
      "Ġrefined": 3994,
      "Ġrefraining": 3995,
      "Ġrefreshed": 3996,
      "Ġaccess": 3997,
      "Ġcheese": 3998,
      "Ġtherefore": 3999,
      "ĠProbably": 4000,
      "ĠEventually": 4001,
      "Ġcompromise": 4002,
      "Ġcontinual": 4003,
      "Ġcares": 4004,
      "Ġrace": 4005,
      "Ġhappy": 4006,
      "ĠAny": 4007,
      "ĠAnimal": 4008,
      "Ġanxious": 4009,
      "Ġadjustments": 4010,
      "amethasone": 4011,
      "going": 4012,
      "ibr": 4013,
      "Ġeyelids": 4014,
      "Ġstarting": 4015,
      "ification": 4016,
      "Ġsystems": 4017,
      "Ġsystematic": 4018,
      "Ġvari": 4019,
      "Ġvariety": 4020,
      "airy": 4021,
      "sychiat": 4022,
      "Ġbuy": 4023,
      "Ġbuck": 4024,
      "Ġbathtu": 4025,
      "Ġcarbohydrates": 4026,
      "Ġmidnight": 4027,
      "Ġdesc": 4028,
      "Ġdesk": 4029,
      "Ġlasting": 4030,
      "Ġheadache": 4031,
      "Ġrecommendations": 4032,
      "Ġtemperatur": 4033,
      "Ġsubstances": 4034,
      "coming": 4035,
      "ized": 4036,
      "Ġrole": 4037,
      "Ġroof": 4038,
      "ĠAsians": 4039,
      "society": 4040,
      "ĠNovember": 4041,
      "Ġtriggers": 4042,
      "Ġtriggered": 4043,
      "Ġadditional": 4044,
      "Ġcontrols": 4045,
      "inted": 4046,
      "Ġsituations": 4047,
      "Ġfatty": 4048,
      "ĠContents": 4049,
      "ĠReg": 4050,
      "ĠRecent": 4051,
      "ĠNote": 4052,
      "Ġblocking": 4053,
      "Ġblockers": 4054,
      "Ġblockage": 4055,
      "Ġrecordings": 4056,
      "fficient": 4057,
      "nightcap": 4058,
      "Ġidentif": 4059,
      "Ġsurpr": 4060,
      "Ġcreate": 4061,
      "Ġcreatures": 4062,
      "Ġfunctions": 4063,
      "Ġinfants": 4064,
      "Ġinflamm": 4065,
      "Ġassociate": 4066,
      "Ġconfir": 4067,
      "Ġphysiological": 4068,
      "204": 4069,
      "Ġterror": 4070,
      "Ġobstru": 4071,
      "Ġindic": 4072,
      "ĠDiagnosed": 4073,
      "Ġparticipating": 4074,
      "who": 4075,
      "what": 4076,
      "Ġtelling": 4077,
      "Ġhomemade": 4078,
      "Ġrequired": 4079,
      "Ġdistract": 4080,
      "ĠRelief": 4081,
      "Ġcontributes": 4082,
      "Ġpoorly": 4083,
      "Ġfocusing": 4084,
      "Ġremembering": 4085,
      "cadian": 4086,
      "ginally": 4087,
      "Ġeduc": 4088,
      "Ġsedating": 4089
    },
    "merges": [
      [
        "Ġ",
        "t"
      ],
      [
        "Ġ",
        "a"
      ],
      [
        "i",
        "n"
      ],
      [
        "_",
        "_"
      ],
      [
        "Ġ",
        "s"
      ],
      [
        "l",
        "e"
      ],
      [
        "h",
        "e"
      ],
      [
        "r",
        "e"
      ],
      [
        "o",
        "u"
      ],
      [
        "Ġ",
        "o"
      ],
      [
        "e",
        "p"
      ],
      [
        "a",
        "t"
      ],
      [
        "e",
        "r"
      ],
      [
        "le",
        "ep"
      ],
      [
        "Ġ",
        "b"
      ],
      [
        "Ġ",
        "w"
      ],
      [
        "in",
        "g"
      ],
      [
        "o",
        "r"
      ],
      [
        "Ġ",
        "c"
      ],
      [
        "__",
        "__"
      ],
      [
        "n",
        "d"
      ],
      [
        "Ġ",
        "m"
      ],
      [
        "Ġ",
        "d"
      ],
      [
        "Ġt",
        "he"
      ],
      [
        "o",
        "n"
      ],
      [
        "a",
        "l"
      ],
      [
        "e",
        "s"
      ],
      [
        "Ġt",
        "o"
      ],
      [
        "Ġ",
        "y"
      ],
      [
        "i",
        "s"
      ],
      [
        "Ġs",
        "leep"
      ],
      [
        "Ġy",
        "ou"
      ],
      [
        "Ġ",
        "f"
      ],
      [
        "e",
        "n"
      ],
      [
        "Ġa",
        "nd"
      ],
      [
        "Ġ",
        "p"
      ],
      [
        "i",
        "t"
      ],
      [
        "a",
        "n"
      ],
      [
        "Ġ",
        "."
      ],
      [
        "e",
        "d"
      ],
      [
        "Ġo",
        "f"
      ],
      [
        "Ġ",
        "n"
      ],
      [
        "Ġ",
        "in"
      ],
      [
        "a",
        "r"
      ],
      [
        "Ġ",
        "h"
      ],
      [
        "o",
        "m"
      ],
      [
        "Ġt",
        "h"
      ],
      [
        "____",
        "____"
      ],
      [
        "i",
        "c"
      ],
      [
        "â",
        "Ģ"
      ],
      [
        "v",
        "e"
      ],
      [
        "Ġ",
        "l"
      ],
      [
        "g",
        "h"
      ],
      [
        "a",
        "y"
      ],
      [
        "Ġb",
        "e"
      ],
      [
        "l",
        "y"
      ],
      [
        "Ġ",
        "re"
      ],
      [
        "i",
        "on"
      ],
      [
        "Ġ",
        "e"
      ],
      [
        "s",
        "e"
      ],
      [
        "i",
        "m"
      ],
      [
        "Ġyou",
        "r"
      ],
      [
        "Ġ",
        "S"
      ],
      [
        "c",
        "t"
      ],
      [
        "Ġo",
        "r"
      ],
      [
        "i",
        "gh"
      ],
      [
        "o",
        "w"
      ],
      [
        "s",
        "t"
      ],
      [
        "en",
        "t"
      ],
      [
        "igh",
        "t"
      ],
      [
        "Ġ",
        "T"
      ],
      [
        "Ġ",
        "g"
      ],
      [
        "Ġ",
        "I"
      ],
      [
        "k",
        "e"
      ],
      [
        "l",
        "l"
      ],
      [
        "r",
        "o"
      ],
      [
        "Ġ",
        "is"
      ],
      [
        "Ġc",
        "an"
      ],
      [
        "t",
        "h"
      ],
      [
        "Ġa",
        "s"
      ],
      [
        "Ġh",
        "a"
      ],
      [
        "Ġ",
        "he"
      ],
      [
        "o",
        "d"
      ],
      [
        "Ġ",
        "u"
      ],
      [
        "Ġth",
        "at"
      ],
      [
        "e",
        "t"
      ],
      [
        "i",
        "d"
      ],
      [
        "Ġf",
        "or"
      ],
      [
        "o",
        "re"
      ],
      [
        "Ġs",
        "t"
      ],
      [
        "r",
        "a"
      ],
      [
        "u",
        "r"
      ],
      [
        "c",
        "h"
      ],
      [
        "i",
        "f"
      ],
      [
        "o",
        "t"
      ],
      [
        "u",
        "l"
      ],
      [
        "________",
        "________"
      ],
      [
        "Ġo",
        "n"
      ],
      [
        "p",
        "le"
      ],
      [
        "Ġw",
        "h"
      ],
      [
        "Ġ",
        "A"
      ],
      [
        "Ġa",
        "re"
      ],
      [
        "a",
        "s"
      ],
      [
        "ou",
        "r"
      ],
      [
        "at",
        "ion"
      ],
      [
        "a",
        "ke"
      ],
      [
        "v",
        "er"
      ],
      [
        "ĠS",
        "leep"
      ],
      [
        "i",
        "r"
      ],
      [
        "âĢ",
        "Ļ"
      ],
      [
        "Ġw",
        "e"
      ],
      [
        "im",
        "e"
      ],
      [
        "s",
        "s"
      ],
      [
        "Ġha",
        "ve"
      ],
      [
        "t",
        "er"
      ],
      [
        "Ġ",
        "H"
      ],
      [
        "it",
        "h"
      ],
      [
        "Ġa",
        "l"
      ],
      [
        "Ġn",
        "ight"
      ],
      [
        "Ġ",
        "M"
      ],
      [
        "Ġ",
        "("
      ],
      [
        "Ġ",
        "le"
      ],
      [
        "Ġ",
        "it"
      ],
      [
        "l",
        "d"
      ],
      [
        "Ġs",
        "u"
      ],
      [
        "he",
        "r"
      ],
      [
        "Ġw",
        "ith"
      ],
      [
        "a",
        "g"
      ],
      [
        "c",
        "e"
      ],
      [
        "Ġ",
        "C"
      ],
      [
        "e",
        "l"
      ],
      [
        "f",
        "e"
      ],
      [
        "c",
        "k"
      ],
      [
        "u",
        "t"
      ],
      [
        "Ġ",
        "âĢ"
      ],
      [
        "e",
        "o"
      ],
      [
        "p",
        "s"
      ],
      [
        "eo",
        "ple"
      ],
      [
        "b",
        "le"
      ],
      [
        "r",
        "i"
      ],
      [
        "Ġ",
        "D"
      ],
      [
        "ĠT",
        "he"
      ],
      [
        "l",
        "o"
      ],
      [
        "ou",
        "t"
      ],
      [
        "Ġa",
        "t"
      ],
      [
        "Ġm",
        "ay"
      ],
      [
        "Ġa",
        "n"
      ],
      [
        "re",
        "at"
      ],
      [
        "al",
        "th"
      ],
      [
        "er",
        "s"
      ],
      [
        "om",
        "e"
      ],
      [
        "Ġ",
        "1"
      ],
      [
        "s",
        "o"
      ],
      [
        "t",
        "s"
      ],
      [
        "Ġm",
        "ore"
      ],
      [
        "Ġd",
        "is"
      ],
      [
        "Ġd",
        "ay"
      ],
      [
        "Ġ",
        "Y"
      ],
      [
        "e",
        "a"
      ],
      [
        "Ġhe",
        "l"
      ],
      [
        "Ġp",
        "eople"
      ],
      [
        "Ġ",
        "R"
      ],
      [
        "Ġd",
        "o"
      ],
      [
        "i",
        "ve"
      ],
      [
        "q",
        "u"
      ],
      [
        "es",
        "s"
      ],
      [
        "ur",
        "ing"
      ],
      [
        "Ġs",
        "h"
      ],
      [
        "Ġp",
        "ro"
      ],
      [
        "or",
        "t"
      ],
      [
        "a",
        "u"
      ],
      [
        "Ġ",
        "2"
      ],
      [
        "Ġ",
        "W"
      ],
      [
        "Ġn",
        "e"
      ],
      [
        "Ġn",
        "ot"
      ],
      [
        "f",
        "fe"
      ],
      [
        "i",
        "ll"
      ],
      [
        "Ġc",
        "h"
      ],
      [
        "ar",
        "t"
      ],
      [
        "Ġ",
        "P"
      ],
      [
        "or",
        "m"
      ],
      [
        "Ġf",
        "e"
      ],
      [
        "Ġe",
        "x"
      ],
      [
        "Ġa",
        "d"
      ],
      [
        "or",
        "d"
      ],
      [
        "n",
        "i"
      ],
      [
        "Ġd",
        "uring"
      ],
      [
        "Ġ",
        "N"
      ],
      [
        "Ġ",
        "r"
      ],
      [
        "Ġt",
        "ime"
      ],
      [
        "Ġhel",
        "p"
      ],
      [
        "m",
        "ent"
      ],
      [
        "al",
        "l"
      ],
      [
        "Ġg",
        "et"
      ],
      [
        "Ġw",
        "or"
      ],
      [
        "a",
        "k"
      ],
      [
        "o",
        "l"
      ],
      [
        "in",
        "e"
      ],
      [
        "Ġal",
        "so"
      ],
      [
        "ou",
        "gh"
      ],
      [
        "Ġb",
        "ed"
      ],
      [
        "it",
        "y"
      ],
      [
        "Ġwh",
        "o"
      ],
      [
        "a",
        "d"
      ],
      [
        "es",
        "t"
      ],
      [
        "ic",
        "al"
      ],
      [
        "p",
        "t"
      ],
      [
        "t",
        "her"
      ],
      [
        "Ġc",
        "on"
      ],
      [
        "a",
        "m"
      ],
      [
        "Ġ",
        "E"
      ],
      [
        "in",
        "d"
      ],
      [
        "a",
        "in"
      ],
      [
        "p",
        "p"
      ],
      [
        "at",
        "e"
      ],
      [
        "Ġb",
        "od"
      ],
      [
        "Ġw",
        "he"
      ],
      [
        "Ġ",
        "if"
      ],
      [
        "i",
        "l"
      ],
      [
        "Ġ",
        "B"
      ],
      [
        "i",
        "es"
      ],
      [
        "o",
        "od"
      ],
      [
        "c",
        "o"
      ],
      [
        "re",
        "ss"
      ],
      [
        "r",
        "om"
      ],
      [
        "u",
        "d"
      ],
      [
        "e",
        "m"
      ],
      [
        "om",
        "ni"
      ],
      [
        "ĠI",
        "n"
      ],
      [
        "Ġas",
        "leep"
      ],
      [
        "Ġu",
        "p"
      ],
      [
        "a",
        "ck"
      ],
      [
        "Ġbod",
        "y"
      ],
      [
        "Ġ",
        "O"
      ],
      [
        "Ġd",
        "e"
      ],
      [
        "al",
        "ly"
      ],
      [
        "s",
        "omni"
      ],
      [
        "Ġfe",
        "el"
      ],
      [
        "somni",
        "a"
      ],
      [
        "u",
        "re"
      ],
      [
        "Ġ",
        "G"
      ],
      [
        "Ġ",
        "F"
      ],
      [
        "Ġwor",
        "k"
      ],
      [
        "p",
        "e"
      ],
      [
        "r",
        "u"
      ],
      [
        "Ġ",
        "im"
      ],
      [
        "Ġb",
        "y"
      ],
      [
        "Ġf",
        "all"
      ],
      [
        "Ġth",
        "an"
      ],
      [
        "id",
        "e"
      ],
      [
        "ĠH",
        "e"
      ],
      [
        "ffe",
        "ct"
      ],
      [
        "i",
        "v"
      ],
      [
        "Ġ",
        "en"
      ],
      [
        "Ġs",
        "e"
      ],
      [
        "________________",
        "________________"
      ],
      [
        "Ġth",
        "is"
      ],
      [
        "ag",
        "e"
      ],
      [
        "d",
        "u"
      ],
      [
        "Ġc",
        "om"
      ],
      [
        "an",
        "t"
      ],
      [
        "n",
        "t"
      ],
      [
        "r",
        "y"
      ],
      [
        "Ġ",
        "3"
      ],
      [
        "Ġa",
        "b"
      ],
      [
        "Ġa",
        "w"
      ],
      [
        "Ġthe",
        "y"
      ],
      [
        "Ġre",
        "l"
      ],
      [
        "in",
        "k"
      ],
      [
        "Ġm",
        "ake"
      ],
      [
        "on",
        "g"
      ],
      [
        "Ġf",
        "rom"
      ],
      [
        "Ġwhe",
        "n"
      ],
      [
        "Ġo",
        "ther"
      ],
      [
        "Ġd",
        "i"
      ],
      [
        "ct",
        "or"
      ],
      [
        "Ġdis",
        "ord"
      ],
      [
        "p",
        "n"
      ],
      [
        "is",
        "t"
      ],
      [
        "Ġm",
        "o"
      ],
      [
        "on",
        "e"
      ],
      [
        "Ġh",
        "our"
      ],
      [
        "ĠT",
        "h"
      ],
      [
        "au",
        "se"
      ],
      [
        "Ġs",
        "n"
      ],
      [
        "c",
        "i"
      ],
      [
        "ĠHe",
        "alth"
      ],
      [
        "t",
        "ime"
      ],
      [
        "Ġw",
        "ill"
      ],
      [
        "Ġm",
        "ed"
      ],
      [
        "Ġwe",
        "ll"
      ],
      [
        "ĠâĢ",
        "ľ"
      ],
      [
        "Ġim",
        "p"
      ],
      [
        "Ġs",
        "ome"
      ],
      [
        "re",
        "d"
      ],
      [
        "Ġin",
        "somnia"
      ],
      [
        "a",
        "st"
      ],
      [
        "f",
        "ore"
      ],
      [
        "Ġm",
        "u"
      ],
      [
        "Ġin",
        "c"
      ],
      [
        "Ġh",
        "ow"
      ],
      [
        "Ġs",
        "y"
      ],
      [
        "or",
        "ing"
      ],
      [
        "ĠY",
        "our"
      ],
      [
        "pn",
        "ea"
      ],
      [
        "c",
        "c"
      ],
      [
        "Ġ",
        "k"
      ],
      [
        "Ġm",
        "e"
      ],
      [
        "ra",
        "in"
      ],
      [
        "i",
        "ld"
      ],
      [
        "Ġ",
        "qu"
      ],
      [
        "Ġsleep",
        "ing"
      ],
      [
        "âĢ",
        "ĵ"
      ],
      [
        "Ġhour",
        "s"
      ],
      [
        "0",
        "1"
      ],
      [
        "Ġs",
        "o"
      ],
      [
        "Ġc",
        "o"
      ],
      [
        "Ġbe",
        "fore"
      ],
      [
        "Ġhe",
        "alth"
      ],
      [
        "ĠY",
        "ou"
      ],
      [
        "i",
        "ke"
      ],
      [
        "v",
        "ing"
      ],
      [
        "Ġ",
        "L"
      ],
      [
        "Ġ",
        "v"
      ],
      [
        "Ġa",
        "pnea"
      ],
      [
        "ct",
        "ion"
      ],
      [
        "f",
        "ul"
      ],
      [
        "i",
        "g"
      ],
      [
        "i",
        "le"
      ],
      [
        "ar",
        "y"
      ],
      [
        "ĠâĢ",
        "¢"
      ],
      [
        "ble",
        "m"
      ],
      [
        "i",
        "e"
      ],
      [
        "n",
        "e"
      ],
      [
        "ou",
        "ld"
      ],
      [
        "Ġbe",
        "t"
      ],
      [
        "ĠI",
        "t"
      ],
      [
        "p",
        "er"
      ],
      [
        "ou",
        "s"
      ],
      [
        "ĠI",
        "f"
      ],
      [
        "Ġo",
        "ver"
      ],
      [
        "at",
        "ed"
      ],
      [
        "Ġthe",
        "ir"
      ],
      [
        "Ġp",
        "art"
      ],
      [
        "it",
        "ion"
      ],
      [
        "ul",
        "t"
      ],
      [
        "E",
        "M"
      ],
      [
        "g",
        "e"
      ],
      [
        "Â",
        "Ń"
      ],
      [
        "Ġp",
        "re"
      ],
      [
        "an",
        "y"
      ],
      [
        "Ġu",
        "s"
      ],
      [
        "ĠW",
        "h"
      ],
      [
        "Ġne",
        "ed"
      ],
      [
        "Ġcon",
        "t"
      ],
      [
        "Ġab",
        "out"
      ],
      [
        "e",
        "ar"
      ],
      [
        "f",
        "orm"
      ],
      [
        "re",
        "n"
      ],
      [
        "is",
        "e"
      ],
      [
        "ra",
        "p"
      ],
      [
        "a",
        "v"
      ],
      [
        "e",
        "nd"
      ],
      [
        "f",
        "ic"
      ],
      [
        "Ġt",
        "reat"
      ],
      [
        "ou",
        "nd"
      ],
      [
        "Ġb",
        "ut"
      ],
      [
        "Ġp",
        "er"
      ],
      [
        "Ġl",
        "ike"
      ],
      [
        "Ġbe",
        "c"
      ],
      [
        "Ġpro",
        "blem"
      ],
      [
        "Ġb",
        "rain"
      ],
      [
        "n",
        "ing"
      ],
      [
        "Ġd",
        "if"
      ],
      [
        "âĢ",
        "Ŀ"
      ],
      [
        "Ġe",
        "ffect"
      ],
      [
        "reat",
        "h"
      ],
      [
        "ĠTh",
        "is"
      ],
      [
        "o",
        "se"
      ],
      [
        "Ġ",
        "5"
      ],
      [
        "Ġthe",
        "se"
      ],
      [
        "Ġp",
        "o"
      ],
      [
        "ar",
        "d"
      ],
      [
        "Ġg",
        "o"
      ],
      [
        "Ġg",
        "ood"
      ],
      [
        "m",
        "on"
      ],
      [
        "s",
        "c"
      ],
      [
        "t",
        "en"
      ],
      [
        "Ġa",
        "ct"
      ],
      [
        "âĢ",
        "Ķ"
      ],
      [
        "ow",
        "n"
      ],
      [
        "ĠHealth",
        "y"
      ],
      [
        "Ġc",
        "a"
      ],
      [
        "Ġ",
        "our"
      ],
      [
        "Ġb",
        "reath"
      ],
      [
        "Ġw",
        "ake"
      ],
      [
        "it",
        "e"
      ],
      [
        "Ġu",
        "se"
      ],
      [
        "ul",
        "ar"
      ],
      [
        "Ġen",
        "ough"
      ],
      [
        "a",
        "x"
      ],
      [
        "f",
        "ter"
      ],
      [
        "o",
        "id"
      ],
      [
        "t",
        "ing"
      ],
      [
        "u",
        "st"
      ],
      [
        "ï",
        "Ĥ"
      ],
      [
        "Ġ",
        "ïĤ"
      ],
      [
        "Ġl",
        "ong"
      ],
      [
        "Ġe",
        "v"
      ],
      [
        "Ġwh",
        "ile"
      ],
      [
        "ĠïĤ",
        "·"
      ],
      [
        "u",
        "m"
      ],
      [
        "Ġ",
        "out"
      ],
      [
        "Ġb",
        "lo"
      ],
      [
        "al",
        "k"
      ],
      [
        "an",
        "ce"
      ],
      [
        "Ġon",
        "e"
      ],
      [
        "ver",
        "y"
      ],
      [
        "Ġan",
        "y"
      ],
      [
        "Ġch",
        "ild"
      ],
      [
        "a",
        "ble"
      ],
      [
        "Ġ",
        "ke"
      ],
      [
        "Ġc",
        "lo"
      ],
      [
        "Ġsleep",
        "y"
      ],
      [
        "an",
        "s"
      ],
      [
        "Ġst",
        "ud"
      ],
      [
        "a",
        "ch"
      ],
      [
        "i",
        "ly"
      ],
      [
        "u",
        "e"
      ],
      [
        "w",
        "ay"
      ],
      [
        "Ġ",
        "4"
      ],
      [
        "Ġ",
        "j"
      ],
      [
        "Ġa",
        "fter"
      ],
      [
        "Ġre",
        "st"
      ],
      [
        "ation",
        "s"
      ],
      [
        "Ġmed",
        "ic"
      ],
      [
        "a",
        "b"
      ],
      [
        "e",
        "ll"
      ],
      [
        "r",
        "ink"
      ],
      [
        "Ġ",
        "________________________________"
      ],
      [
        "Ġa",
        "ir"
      ],
      [
        "__",
        "_"
      ],
      [
        "er",
        "c"
      ],
      [
        "Ġf",
        "a"
      ],
      [
        "________",
        "___"
      ],
      [
        "Ġl",
        "ight"
      ],
      [
        "________________",
        "___________"
      ],
      [
        "ĠH",
        "ow"
      ],
      [
        "ps",
        "y"
      ],
      [
        "au",
        "s"
      ],
      [
        "Ġke",
        "ep"
      ],
      [
        "Ġ________________________________",
        "___________________________"
      ],
      [
        "g",
        "s"
      ],
      [
        "u",
        "n"
      ],
      [
        "y",
        "s"
      ],
      [
        "Ġof",
        "ten"
      ],
      [
        "Ġre",
        "s"
      ],
      [
        "Ġdo",
        "ctor"
      ],
      [
        "Ġk",
        "n"
      ],
      [
        "l",
        "ud"
      ],
      [
        "u",
        "ide"
      ],
      [
        "Ġt",
        "i"
      ],
      [
        "Ġs",
        "pe"
      ],
      [
        "al",
        "s"
      ],
      [
        "en",
        "ce"
      ],
      [
        "im",
        "es"
      ],
      [
        "ul",
        "ts"
      ],
      [
        "Ġdisord",
        "ers"
      ],
      [
        "c",
        "he"
      ],
      [
        "m",
        "pt"
      ],
      [
        "o",
        "s"
      ],
      [
        "r",
        "on"
      ],
      [
        "in",
        "ess"
      ],
      [
        "Ġw",
        "ay"
      ],
      [
        "Ġm",
        "in"
      ],
      [
        "Ġn",
        "o"
      ],
      [
        "ar",
        "co"
      ],
      [
        "Ġsu",
        "ch"
      ],
      [
        "Ġbet",
        "ter"
      ],
      [
        "ĠWh",
        "at"
      ],
      [
        "r",
        "ow"
      ],
      [
        "Ġt",
        "ry"
      ],
      [
        "Ġa",
        "r"
      ],
      [
        "Ġa",
        "ll"
      ],
      [
        "at",
        "er"
      ],
      [
        "ve",
        "l"
      ],
      [
        "Ġre",
        "c"
      ],
      [
        "Ġaw",
        "ake"
      ],
      [
        "Ġdisord",
        "er"
      ],
      [
        "Ġmo",
        "st"
      ],
      [
        "Ġmu",
        "ch"
      ],
      [
        "Ġchild",
        "ren"
      ],
      [
        "a",
        "ps"
      ],
      [
        "b",
        "er"
      ],
      [
        "g",
        "er"
      ],
      [
        "i",
        "o"
      ],
      [
        "v",
        "oid"
      ],
      [
        "Ġ",
        "U"
      ],
      [
        "le",
        "psy"
      ],
      [
        "Ġb",
        "ack"
      ],
      [
        "Ġc",
        "al"
      ],
      [
        "om",
        "s"
      ],
      [
        "ĠA",
        "l"
      ],
      [
        "Ġwe",
        "e"
      ],
      [
        "Ġ1",
        "0"
      ],
      [
        "ment",
        "s"
      ],
      [
        "ak",
        "ing"
      ],
      [
        "Ġsy",
        "mpt"
      ],
      [
        "Ġproblem",
        "s"
      ],
      [
        "arco",
        "lepsy"
      ],
      [
        ")",
        "."
      ],
      [
        "h",
        "ol"
      ],
      [
        "n",
        "ess"
      ],
      [
        "r",
        "ou"
      ],
      [
        "t",
        "e"
      ],
      [
        "Ġl",
        "if"
      ],
      [
        "Ġl",
        "ack"
      ],
      [
        "ĠR",
        "EM"
      ],
      [
        "Ġsh",
        "ould"
      ],
      [
        "co",
        "hol"
      ],
      [
        "ĠG",
        "uide"
      ],
      [
        "Ġimp",
        "ort"
      ],
      [
        "form",
        "ation"
      ],
      [
        "Ġbreath",
        "ing"
      ],
      [
        "c",
        "es"
      ],
      [
        "l",
        "in"
      ],
      [
        "at",
        "ive"
      ],
      [
        "ing",
        "s"
      ],
      [
        "Ġm",
        "any"
      ],
      [
        "on",
        "in"
      ],
      [
        "Ġsleep",
        "iness"
      ],
      [
        "Ġf",
        "ind"
      ],
      [
        "Ġh",
        "orm"
      ],
      [
        "ĠS",
        "t"
      ],
      [
        "ĠS",
        "ome"
      ],
      [
        "Ġst",
        "ress"
      ],
      [
        "Ġwh",
        "at"
      ],
      [
        "ĠD",
        "o"
      ],
      [
        "Ġex",
        "erc"
      ],
      [
        "rap",
        "y"
      ],
      [
        "h",
        "av"
      ],
      [
        "Ġ",
        "7"
      ],
      [
        "Ġa",
        "ffect"
      ],
      [
        "at",
        "onin"
      ],
      [
        "Ġc",
        "aus"
      ],
      [
        "Ġd",
        "rink"
      ],
      [
        "al",
        "ity"
      ],
      [
        "ic",
        "h"
      ],
      [
        "Ġl",
        "o"
      ],
      [
        "Ġe",
        "ar"
      ],
      [
        "Ġha",
        "s"
      ],
      [
        "Ġhe",
        "art"
      ],
      [
        "Ġsu",
        "pp"
      ],
      [
        "ag",
        "n"
      ],
      [
        "el",
        "atonin"
      ],
      [
        "Ġday",
        "time"
      ],
      [
        "ak",
        "en"
      ],
      [
        "ctor",
        "s"
      ],
      [
        "Ġinc",
        "re"
      ],
      [
        "Ġsympt",
        "oms"
      ],
      [
        "Ġimport",
        "ant"
      ],
      [
        "l",
        "a"
      ],
      [
        "l",
        "ow"
      ],
      [
        "o",
        "k"
      ],
      [
        "Ġa",
        "pp"
      ],
      [
        "ou",
        "nt"
      ],
      [
        "Ġd",
        "ep"
      ],
      [
        "Ġd",
        "ri"
      ],
      [
        "Ġp",
        "at"
      ],
      [
        "Ġst",
        "ay"
      ],
      [
        "ter",
        "n"
      ],
      [
        "Ġal",
        "cohol"
      ],
      [
        "ĠD",
        "is"
      ],
      [
        "Ġsn",
        "oring"
      ],
      [
        "ron",
        "ic"
      ],
      [
        "u",
        "s"
      ],
      [
        "Ġ",
        "J"
      ],
      [
        "Ġa",
        "m"
      ],
      [
        "le",
        "d"
      ],
      [
        "Ġc",
        "ause"
      ],
      [
        "ic",
        "e"
      ],
      [
        "et",
        "y"
      ],
      [
        "Ġle",
        "ss"
      ],
      [
        "ut",
        "es"
      ],
      [
        "qu",
        "ent"
      ],
      [
        "Ġad",
        "ults"
      ],
      [
        "Ġinc",
        "lud"
      ],
      [
        "Ġbec",
        "ause"
      ],
      [
        "Ġdif",
        "fic"
      ],
      [
        "Ġact",
        "iv"
      ],
      [
        "Ġblo",
        "od"
      ],
      [
        "hav",
        "i"
      ],
      [
        "e",
        "ver"
      ],
      [
        "w",
        "w"
      ],
      [
        "Ġ",
        "6"
      ],
      [
        "Ġs",
        "p"
      ],
      [
        "Ġo",
        "cc"
      ],
      [
        "Ġm",
        "y"
      ],
      [
        "is",
        "k"
      ],
      [
        "Ġf",
        "o"
      ],
      [
        "Ġf",
        "re"
      ],
      [
        "ic",
        "k"
      ],
      [
        "ent",
        "s"
      ],
      [
        "Ġu",
        "n"
      ],
      [
        "Ġle",
        "ast"
      ],
      [
        "lo",
        "g"
      ],
      [
        "Ġ2",
        "01"
      ],
      [
        "Ġr",
        "isk"
      ],
      [
        "ru",
        "pt"
      ],
      [
        "Ġcom",
        "mon"
      ],
      [
        "ig",
        "n"
      ],
      [
        "Ġclo",
        "ck"
      ],
      [
        "Ġdiffic",
        "ult"
      ],
      [
        "b",
        "s"
      ],
      [
        "c",
        "ess"
      ],
      [
        "e",
        "f"
      ],
      [
        "g",
        "es"
      ],
      [
        "g",
        "ular"
      ],
      [
        "o",
        "g"
      ],
      [
        "v",
        "ed"
      ],
      [
        "w",
        "e"
      ],
      [
        "y",
        "p"
      ],
      [
        "at",
        "ing"
      ],
      [
        "Ġthe",
        "m"
      ],
      [
        "on",
        "s"
      ],
      [
        "Ġp",
        "ain"
      ],
      [
        "Ġp",
        "ress"
      ],
      [
        "Ġh",
        "ard"
      ],
      [
        "Ġon",
        "ly"
      ],
      [
        "Ġwh",
        "ich"
      ],
      [
        "ĠM",
        "ed"
      ],
      [
        "ĠR",
        "es"
      ],
      [
        "Ġch",
        "an"
      ],
      [
        "ak",
        "es"
      ],
      [
        "Ġrel",
        "ax"
      ],
      [
        "Ġsn",
        "ore"
      ],
      [
        "Ġqu",
        "ality"
      ],
      [
        "Ġlike",
        "ly"
      ],
      [
        "Ġeffect",
        "s"
      ],
      [
        "Ġev",
        "en"
      ],
      [
        "Ġair",
        "way"
      ],
      [
        "Ġti",
        "red"
      ],
      [
        "Ġmin",
        "utes"
      ],
      [
        "Ġwee",
        "k"
      ],
      [
        "lin",
        "ical"
      ],
      [
        "Ġpress",
        "ure"
      ],
      [
        "a",
        "se"
      ],
      [
        "t",
        "ain"
      ],
      [
        "u",
        "ally"
      ],
      [
        "Ġt",
        "w"
      ],
      [
        "Ġt",
        "ri"
      ],
      [
        "in",
        "es"
      ],
      [
        "Ġm",
        "elatonin"
      ],
      [
        "Ġd",
        "on"
      ],
      [
        "Ġp",
        "ill"
      ],
      [
        "it",
        "s"
      ],
      [
        "Ġbe",
        "ing"
      ],
      [
        "se",
        "ar"
      ],
      [
        "ot",
        "her"
      ],
      [
        "Ġle",
        "ar"
      ],
      [
        "ĠThe",
        "se"
      ],
      [
        "am",
        "ple"
      ],
      [
        "du",
        "ce"
      ],
      [
        "Ġkn",
        "ow"
      ],
      [
        "havi",
        "or"
      ],
      [
        "r",
        "ough"
      ],
      [
        "Ġ",
        "9"
      ],
      [
        "Ġt",
        "ake"
      ],
      [
        "Ġt",
        "imes"
      ],
      [
        "or",
        "ning"
      ],
      [
        "nd",
        "ition"
      ],
      [
        "Ġm",
        "ind"
      ],
      [
        "Ġp",
        "h"
      ],
      [
        "Ġn",
        "aps"
      ],
      [
        "Ġn",
        "arcolepsy"
      ],
      [
        "ro",
        "om"
      ],
      [
        "Ġle",
        "vel"
      ],
      [
        "Ġ2",
        "0"
      ],
      [
        "ffe",
        "ine"
      ],
      [
        "Ġfe",
        "w"
      ],
      [
        "Ġget",
        "ting"
      ],
      [
        "Ġrel",
        "ie"
      ],
      [
        "Ġlif",
        "e"
      ],
      [
        "Ġexerc",
        "ise"
      ],
      [
        "log",
        "ical"
      ],
      [
        "o",
        "p"
      ],
      [
        "Ġt",
        "end"
      ],
      [
        "re",
        "am"
      ],
      [
        "Ġb",
        "est"
      ],
      [
        "nd",
        "er"
      ],
      [
        "on",
        "es"
      ],
      [
        "Ġth",
        "rough"
      ],
      [
        "Ġbe",
        "havior"
      ],
      [
        "Ġe",
        "ach"
      ],
      [
        "ver",
        "s"
      ],
      [
        "ld",
        "er"
      ],
      [
        "ag",
        "es"
      ],
      [
        "fe",
        "re"
      ],
      [
        "ĠP",
        "eople"
      ],
      [
        "orm",
        "al"
      ],
      [
        "Ġmo",
        "ve"
      ],
      [
        "Ġimp",
        "ro"
      ],
      [
        "ĠDis",
        "ord"
      ],
      [
        "ĠRes",
        "ear"
      ],
      [
        "b",
        "e"
      ],
      [
        "i",
        "al"
      ],
      [
        "Ġt",
        "ra"
      ],
      [
        "Ġw",
        "as"
      ],
      [
        "Ġc",
        "u"
      ],
      [
        "Ġm",
        "ight"
      ],
      [
        "Ġm",
        "orning"
      ],
      [
        "Ġd",
        "own"
      ],
      [
        "Ġthe",
        "rapy"
      ],
      [
        "Ġto",
        "o"
      ],
      [
        "Ġp",
        "ers"
      ],
      [
        "Ġin",
        "t"
      ],
      [
        "ve",
        "lo"
      ],
      [
        "Ġre",
        "sear"
      ],
      [
        "se",
        "l"
      ],
      [
        "if",
        "t"
      ],
      [
        "as",
        "es"
      ],
      [
        "ĠC",
        "om"
      ],
      [
        "Ġsh",
        "ort"
      ],
      [
        "Ġbed",
        "time"
      ],
      [
        "il",
        "ity"
      ],
      [
        "ĠB",
        "e"
      ],
      [
        "Ġde",
        "velo"
      ],
      [
        "Ġstud",
        "ies"
      ],
      [
        "rou",
        "ble"
      ],
      [
        "Ġocc",
        "ur"
      ],
      [
        "Ġfre",
        "quent"
      ],
      [
        "Ġtw",
        "o"
      ],
      [
        "Ġdevelo",
        "p"
      ],
      [
        "1",
        "0"
      ],
      [
        "a",
        "re"
      ],
      [
        "a",
        "ct"
      ],
      [
        "e",
        "e"
      ],
      [
        "i",
        "er"
      ],
      [
        "i",
        "ble"
      ],
      [
        "l",
        "u"
      ],
      [
        "r",
        "it"
      ],
      [
        "t",
        "he"
      ],
      [
        "y",
        "th"
      ],
      [
        "Ġ",
        "8"
      ],
      [
        "Ġ",
        "K"
      ],
      [
        "Ġt",
        "em"
      ],
      [
        "Ġt",
        "rouble"
      ],
      [
        "at",
        "es"
      ],
      [
        "or",
        "g"
      ],
      [
        "or",
        "y"
      ],
      [
        "Ġp",
        "ar"
      ],
      [
        "Ġin",
        "formation"
      ],
      [
        "Ġre",
        "m"
      ],
      [
        "ch",
        "o"
      ],
      [
        "Ġsu",
        "g"
      ],
      [
        "Ġsh",
        "ow"
      ],
      [
        "Ġch",
        "ronic"
      ],
      [
        "Ġad",
        "d"
      ],
      [
        "Ġaw",
        "aken"
      ],
      [
        "Ġdi",
        "ary"
      ],
      [
        "ci",
        "al"
      ],
      [
        "alk",
        "ing"
      ],
      [
        "Ġlevel",
        "s"
      ],
      [
        "c",
        "ou"
      ],
      [
        "i",
        "ous"
      ],
      [
        "n",
        "oring"
      ],
      [
        "Ġ",
        "V"
      ],
      [
        "le",
        "s"
      ],
      [
        "Ġd",
        "id"
      ],
      [
        "en",
        "s"
      ],
      [
        "Ġre",
        "p"
      ],
      [
        "ĠT",
        "o"
      ],
      [
        "ĠT",
        "ry"
      ],
      [
        "Ġsu",
        "b"
      ],
      [
        "Ġdis",
        "rupt"
      ],
      [
        "Ġne",
        "w"
      ],
      [
        "Ġr",
        "ight"
      ],
      [
        "ĠE",
        "n"
      ],
      [
        "Ġdi",
        "agn"
      ],
      [
        "Ġco",
        "ndition"
      ],
      [
        "Ġca",
        "ffeine"
      ],
      [
        "Ġfa",
        "ctors"
      ],
      [
        "Ġear",
        "ly"
      ],
      [
        "Ġsupp",
        "ort"
      ],
      [
        "L",
        "S"
      ],
      [
        "t",
        "ra"
      ],
      [
        "Ġ",
        "very"
      ],
      [
        "Ġt",
        "ea"
      ],
      [
        "Ġs",
        "m"
      ],
      [
        "Ġs",
        "ign"
      ],
      [
        "le",
        "r"
      ],
      [
        "le",
        "ss"
      ],
      [
        "at",
        "ur"
      ],
      [
        "Ġthe",
        "n"
      ],
      [
        "Ġre",
        "gular"
      ],
      [
        "Ġre",
        "duce"
      ],
      [
        "Ġe",
        "as"
      ],
      [
        "Ġe",
        "very"
      ],
      [
        "ow",
        "er"
      ],
      [
        "ent",
        "er"
      ],
      [
        "ent",
        "al"
      ],
      [
        "Ġg",
        "reat"
      ],
      [
        "Ġu",
        "nder"
      ],
      [
        "as",
        "k"
      ],
      [
        "ation",
        "al"
      ],
      [
        "ir",
        "on"
      ],
      [
        "Ġle",
        "gs"
      ],
      [
        "ĠC",
        "h"
      ],
      [
        "ut",
        "e"
      ],
      [
        "ĠE",
        "x"
      ],
      [
        "Ġpart",
        "ic"
      ],
      [
        "Ġtreat",
        "ment"
      ],
      [
        "ound",
        "ation"
      ],
      [
        "Ġpo",
        "ss"
      ],
      [
        "Ġdri",
        "ving"
      ],
      [
        ")",
        ","
      ],
      [
        "R",
        "EM"
      ],
      [
        "a",
        "il"
      ],
      [
        "c",
        "le"
      ],
      [
        "m",
        "er"
      ],
      [
        "o",
        "th"
      ],
      [
        "s",
        "leep"
      ],
      [
        "Ġt",
        "yp"
      ],
      [
        "Ġa",
        "void"
      ],
      [
        "Ġs",
        "low"
      ],
      [
        "ou",
        "d"
      ],
      [
        "at",
        "h"
      ],
      [
        "Ġw",
        "ant"
      ],
      [
        "Ġc",
        "y"
      ],
      [
        "Ġc",
        "linical"
      ],
      [
        "Ġd",
        "ream"
      ],
      [
        "Ġf",
        "ir"
      ],
      [
        "Ġp",
        "age"
      ],
      [
        "it",
        "ive"
      ],
      [
        "Ġn",
        "on"
      ],
      [
        "Ġth",
        "ose"
      ],
      [
        "Ġre",
        "f"
      ],
      [
        "ĠS",
        "noring"
      ],
      [
        "Ġhel",
        "ps"
      ],
      [
        "Ġsh",
        "ift"
      ],
      [
        "Ġex",
        "ample"
      ],
      [
        "ĠO",
        "ne"
      ],
      [
        "ĠF",
        "or"
      ],
      [
        "Ġfall",
        "ing"
      ],
      [
        "ction",
        "s"
      ],
      [
        "Ġdif",
        "fere"
      ],
      [
        "Ġlong",
        "er"
      ],
      [
        "ĠResear",
        "ch"
      ],
      [
        "Ġint",
        "o"
      ],
      [
        "Ġresear",
        "ch"
      ],
      [
        "Ġdiffere",
        "nt"
      ],
      [
        "j",
        "ust"
      ],
      [
        "o",
        "st"
      ],
      [
        "p",
        "ple"
      ],
      [
        "s",
        "u"
      ],
      [
        "y",
        "g"
      ],
      [
        "Ġa",
        "cc"
      ],
      [
        "he",
        "n"
      ],
      [
        "Ġo",
        "lder"
      ],
      [
        "at",
        "ure"
      ],
      [
        "er",
        "tain"
      ],
      [
        "Ġw",
        "ater"
      ],
      [
        "Ġc",
        "he"
      ],
      [
        "nd",
        "s"
      ],
      [
        "Ġm",
        "on"
      ],
      [
        "Ġthe",
        "re"
      ],
      [
        "an",
        "ts"
      ],
      [
        "ar",
        "m"
      ],
      [
        "Ġth",
        "ings"
      ],
      [
        "ion",
        "s"
      ],
      [
        "Ġg",
        "row"
      ],
      [
        "th",
        "ough"
      ],
      [
        "Ġst",
        "ages"
      ],
      [
        "ĠM",
        "any"
      ],
      [
        "Ġsu",
        "pple"
      ],
      [
        "ri",
        "b"
      ],
      [
        "ĠThe",
        "re"
      ],
      [
        "ĠR",
        "LS"
      ],
      [
        "Ġpro",
        "du"
      ],
      [
        "ĠP",
        "ro"
      ],
      [
        "Ġex",
        "per"
      ],
      [
        "ical",
        "ly"
      ],
      [
        "Ġcon",
        "s"
      ],
      [
        "ĠE",
        "v"
      ],
      [
        "il",
        "s"
      ],
      [
        "Ġcom",
        "p"
      ],
      [
        "Ġmu",
        "sc"
      ],
      [
        "Ġcont",
        "in"
      ],
      [
        "Ġca",
        "re"
      ],
      [
        "Ġstud",
        "y"
      ],
      [
        "Ġspe",
        "nd"
      ],
      [
        "io",
        "logical"
      ],
      [
        "Ġam",
        "ount"
      ],
      [
        "ĠDisord",
        "ers"
      ],
      [
        "Ġpers",
        "on"
      ],
      [
        "a",
        "c"
      ],
      [
        "c",
        "re"
      ],
      [
        "c",
        "ent"
      ],
      [
        "e",
        "ep"
      ],
      [
        "f",
        "ort"
      ],
      [
        "g",
        "ing"
      ],
      [
        "i",
        "en"
      ],
      [
        "i",
        "ety"
      ],
      [
        "t",
        "t"
      ],
      [
        "Ġ",
        "ing"
      ],
      [
        "Ġ",
        "ra"
      ],
      [
        "Ġt",
        "est"
      ],
      [
        "or",
        "s"
      ],
      [
        "Ġc",
        "ell"
      ],
      [
        "it",
        "ies"
      ],
      [
        "Ġin",
        "ter"
      ],
      [
        "Ġl",
        "im"
      ],
      [
        "Ġl",
        "oud"
      ],
      [
        "Ġre",
        "ad"
      ],
      [
        "Ġe",
        "t"
      ],
      [
        "st",
        "em"
      ],
      [
        "ll",
        "ow"
      ],
      [
        "Ġha",
        "pp"
      ],
      [
        "ĠA",
        "n"
      ],
      [
        "as",
        "ed"
      ],
      [
        "Ġwe",
        "re"
      ],
      [
        "ĠâĢ",
        "ĵ"
      ],
      [
        "Ġan",
        "x"
      ],
      [
        "Ġdo",
        "es"
      ],
      [
        "ĠW",
        "e"
      ],
      [
        "Ġad",
        "just"
      ],
      [
        "Ġbed",
        "room"
      ],
      [
        "ad",
        "e"
      ],
      [
        "am",
        "e"
      ],
      [
        "ĠB",
        "ut"
      ],
      [
        "ĠO",
        "ther"
      ],
      [
        "Ġde",
        "ep"
      ],
      [
        "Ġ3",
        "0"
      ],
      [
        "Ġj",
        "ust"
      ],
      [
        "Ġrest",
        "ed"
      ],
      [
        "Ġpat",
        "tern"
      ],
      [
        "Ġinclud",
        "e"
      ],
      [
        "Ġactiv",
        "ity"
      ],
      [
        "bs",
        "ite"
      ],
      [
        "Ġchan",
        "ges"
      ],
      [
        "sel",
        "f"
      ],
      [
        "Ġposs",
        "ible"
      ],
      [
        "mer",
        "ic"
      ],
      [
        "Ġfir",
        "st"
      ],
      [
        ".",
        ")"
      ],
      [
        "A",
        "P"
      ],
      [
        "a",
        "p"
      ],
      [
        "a",
        "nd"
      ],
      [
        "g",
        "o"
      ],
      [
        "i",
        "b"
      ],
      [
        "m",
        "e"
      ],
      [
        "o",
        "le"
      ],
      [
        "Ġs",
        "ide"
      ],
      [
        "ou",
        "th"
      ],
      [
        "Ġw",
        "ww"
      ],
      [
        "Ġc",
        "ol"
      ],
      [
        "Ġm",
        "akes"
      ],
      [
        "Ġm",
        "outh"
      ],
      [
        "Ġof",
        "f"
      ],
      [
        "Ġn",
        "ormal"
      ],
      [
        "Ġe",
        "y"
      ],
      [
        "th",
        "ing"
      ],
      [
        "Ġha",
        "d"
      ],
      [
        "Ġst",
        "art"
      ],
      [
        "if",
        "ic"
      ],
      [
        "ĠA",
        "void"
      ],
      [
        "ĠA",
        "meric"
      ],
      [
        "as",
        "s"
      ],
      [
        "Ġdis",
        "ea"
      ],
      [
        "ĠIn",
        "somnia"
      ],
      [
        "Ġse",
        "e"
      ],
      [
        "Ġmed",
        "ical"
      ],
      [
        "Ġsy",
        "stem"
      ],
      [
        "Ġhealth",
        "y"
      ],
      [
        "Ġv",
        "ar"
      ],
      [
        "Ġpre",
        "v"
      ],
      [
        "Ġus",
        "ed"
      ],
      [
        "Ġus",
        "ually"
      ],
      [
        "Ġper",
        "form"
      ],
      [
        "Ġmedic",
        "ations"
      ],
      [
        "ĠAl",
        "though"
      ],
      [
        "Ġhorm",
        "one"
      ],
      [
        "Ġhard",
        "er"
      ],
      [
        "ĠMed",
        "ic"
      ],
      [
        "Ġlear",
        "n"
      ],
      [
        "Ġimpro",
        "ve"
      ],
      [
        "cho",
        "ol"
      ],
      [
        "Ġdisea",
        "se"
      ],
      [
        "a",
        "le"
      ],
      [
        "a",
        "ve"
      ],
      [
        "a",
        "ir"
      ],
      [
        "a",
        "ily"
      ],
      [
        "g",
        "est"
      ],
      [
        "l",
        "an"
      ],
      [
        "m",
        "end"
      ],
      [
        "s",
        "y"
      ],
      [
        "t",
        "in"
      ],
      [
        "v",
        "es"
      ],
      [
        "Ġt",
        "is"
      ],
      [
        "Ġt",
        "aking"
      ],
      [
        "Ġa",
        "g"
      ],
      [
        "in",
        "ts"
      ],
      [
        "Ġs",
        "a"
      ],
      [
        "er",
        "r"
      ],
      [
        "Ġb",
        "u"
      ],
      [
        "Ġb",
        "ath"
      ],
      [
        "Ġw",
        "ould"
      ],
      [
        "Ġc",
        "ar"
      ],
      [
        "Ġm",
        "id"
      ],
      [
        "Ġd",
        "es"
      ],
      [
        "Ġd",
        "an"
      ],
      [
        "Ġf",
        "ood"
      ],
      [
        "Ġf",
        "ound"
      ],
      [
        "en",
        "er"
      ],
      [
        "om",
        "en"
      ],
      [
        "om",
        "mend"
      ],
      [
        "Ġth",
        "ough"
      ],
      [
        "Ġl",
        "ast"
      ],
      [
        "Ġbe",
        "en"
      ],
      [
        "ct",
        "s"
      ],
      [
        "Ġha",
        "ving"
      ],
      [
        "Ġhe",
        "ad"
      ],
      [
        "Ġwh",
        "y"
      ],
      [
        "ĠM",
        "yth"
      ],
      [
        "em",
        "ber"
      ],
      [
        "Ġbet",
        "we"
      ],
      [
        "Ġcont",
        "ro"
      ],
      [
        "Ġgo",
        "ing"
      ],
      [
        "um",
        "ber"
      ],
      [
        "ab",
        "et"
      ],
      [
        "ĠHow",
        "ever"
      ],
      [
        "Ġrec",
        "ommend"
      ],
      [
        "Ġcal",
        "m"
      ],
      [
        "Ġcal",
        "led"
      ],
      [
        "Ġhorm",
        "ones"
      ],
      [
        "Ġcaus",
        "es"
      ],
      [
        "la",
        "ce"
      ],
      [
        "Ġfo",
        "llow"
      ],
      [
        "Ġpill",
        "ow"
      ],
      [
        "Ġtem",
        "per"
      ],
      [
        "Ġsub",
        "st"
      ],
      [
        "Ġcy",
        "cle"
      ],
      [
        "Ġanx",
        "iety"
      ],
      [
        "Ġbetwe",
        "en"
      ],
      [
        "/",
        "/"
      ],
      [
        ":",
        "//"
      ],
      [
        "P",
        "AP"
      ],
      [
        "c",
        "y"
      ],
      [
        "c",
        "om"
      ],
      [
        "d",
        "r"
      ],
      [
        "f",
        "t"
      ],
      [
        "i",
        "p"
      ],
      [
        "i",
        "z"
      ],
      [
        "r",
        "ight"
      ],
      [
        "r",
        "ate"
      ],
      [
        "t",
        "ent"
      ],
      [
        "Ġ",
        "-"
      ],
      [
        "Ġ",
        "ro"
      ],
      [
        "Ġt",
        "e"
      ],
      [
        "Ġt",
        "ask"
      ],
      [
        "Ġa",
        "ge"
      ],
      [
        "Ġs",
        "le"
      ],
      [
        "re",
        "e"
      ],
      [
        "Ġb",
        "iological"
      ],
      [
        "Ġw",
        "omen"
      ],
      [
        "nd",
        "r"
      ],
      [
        "Ġm",
        "ood"
      ],
      [
        "Ġm",
        "aking"
      ],
      [
        "Ġd",
        "aily"
      ],
      [
        "al",
        "f"
      ],
      [
        "al",
        "ys"
      ],
      [
        "it",
        "ation"
      ],
      [
        "Ġn",
        "atur"
      ],
      [
        "Ġh",
        "igh"
      ],
      [
        "Ġh",
        "tt"
      ],
      [
        "Ġth",
        "ink"
      ],
      [
        "Ġl",
        "ink"
      ],
      [
        "ion",
        "al"
      ],
      [
        "im",
        "ul"
      ],
      [
        "Ġyour",
        "self"
      ],
      [
        "ĠI",
        "s"
      ],
      [
        "ro",
        "p"
      ],
      [
        "Ġu",
        "nt"
      ],
      [
        "id",
        "ence"
      ],
      [
        "Ġst",
        "age"
      ],
      [
        "ĠA",
        "s"
      ],
      [
        "Ġsu",
        "re"
      ],
      [
        "ĠThe",
        "y"
      ],
      [
        "Ġan",
        "other"
      ],
      [
        "Ġ1",
        "1"
      ],
      [
        "so",
        "ci"
      ],
      [
        "ĠW",
        "hen"
      ],
      [
        "ĠN",
        "o"
      ],
      [
        "ĠN",
        "ational"
      ],
      [
        "Ġrel",
        "ated"
      ],
      [
        "ful",
        "ness"
      ],
      [
        "Ġpre",
        "sc"
      ],
      [
        "Ġres",
        "p"
      ],
      [
        "che",
        "s"
      ],
      [
        "che",
        "du"
      ],
      [
        "Ġway",
        "s"
      ],
      [
        "Ġtri",
        "g"
      ],
      [
        "ĠCom",
        "mon"
      ],
      [
        "ĠK",
        "eep"
      ],
      [
        "Ġadd",
        "ition"
      ],
      [
        "cial",
        "ist"
      ],
      [
        "cou",
        "ra"
      ],
      [
        "Ġrep",
        "ort"
      ],
      [
        "Ġet",
        "c"
      ],
      [
        "go",
        "v"
      ],
      [
        "Ġcontro",
        "l"
      ],
      [
        "abet",
        "es"
      ],
      [
        "Ġsle",
        "pt"
      ],
      [
        "alys",
        "is"
      ],
      [
        "b",
        "l"
      ],
      [
        "c",
        "ed"
      ],
      [
        "g",
        "y"
      ],
      [
        "i",
        "re"
      ],
      [
        "i",
        "od"
      ],
      [
        "l",
        "ight"
      ],
      [
        "n",
        "itive"
      ],
      [
        "u",
        "al"
      ],
      [
        "v",
        "iron"
      ],
      [
        "y",
        "dr"
      ],
      [
        "Ġt",
        "alk"
      ],
      [
        "in",
        "t"
      ],
      [
        "Ġs",
        "it"
      ],
      [
        "Ġs",
        "chool"
      ],
      [
        "re",
        "ct"
      ],
      [
        "at",
        "ch"
      ],
      [
        "Ġb",
        "al"
      ],
      [
        "Ġm",
        "en"
      ],
      [
        "Ġm",
        "ental"
      ],
      [
        "Ġf",
        "at"
      ],
      [
        "Ġh",
        "ot"
      ],
      [
        "ic",
        "es"
      ],
      [
        "Ġl",
        "ate"
      ],
      [
        "Ġe",
        "m"
      ],
      [
        "Ġg",
        "ener"
      ],
      [
        "ro",
        "at"
      ],
      [
        "Ġas",
        "k"
      ],
      [
        "Ġha",
        "b"
      ],
      [
        "Ġha",
        "nd"
      ],
      [
        "ra",
        "m"
      ],
      [
        "ver",
        "age"
      ],
      [
        "Ġwe",
        "bsite"
      ],
      [
        "Ġnight",
        "s"
      ],
      [
        "Ġle",
        "ad"
      ],
      [
        "ĠC",
        "on"
      ],
      [
        "ri",
        "ef"
      ],
      [
        "ĠR",
        "e"
      ],
      [
        "Ġex",
        "p"
      ],
      [
        "Ġad",
        "en"
      ],
      [
        "ĠN",
        "ot"
      ],
      [
        "am",
        "ily"
      ],
      [
        "ress",
        "ion"
      ],
      [
        "Ġfeel",
        "ing"
      ],
      [
        "ĠG",
        "P"
      ],
      [
        "iv",
        "es"
      ],
      [
        "Ġab",
        "ility"
      ],
      [
        "Ġdi",
        "abetes"
      ],
      [
        "ci",
        "ally"
      ],
      [
        "Ġper",
        "iod"
      ],
      [
        "Ġbec",
        "ome"
      ],
      [
        "Ġblo",
        "ck"
      ],
      [
        "Ġkn",
        "own"
      ],
      [
        "Ġrec",
        "ord"
      ],
      [
        "Ġthrough",
        "out"
      ],
      [
        "Ġfrequent",
        "ly"
      ],
      [
        "Ġdiagn",
        "ose"
      ],
      [
        "Ġsupple",
        "ments"
      ],
      [
        "Ġag",
        "ain"
      ],
      [
        "ndr",
        "ome"
      ],
      [
        "Ġlink",
        "ed"
      ],
      [
        "viron",
        "ment"
      ],
      [
        "L",
        "E"
      ],
      [
        "S",
        "ee"
      ],
      [
        "b",
        "t"
      ],
      [
        "f",
        "fic"
      ],
      [
        "n",
        "ight"
      ],
      [
        "p",
        "h"
      ],
      [
        "s",
        "h"
      ],
      [
        "t",
        "al"
      ],
      [
        "u",
        "ch"
      ],
      [
        "Ġ",
        "id"
      ],
      [
        "Ġ",
        "ir"
      ],
      [
        "in",
        "ation"
      ],
      [
        "Ġs",
        "k"
      ],
      [
        "Ġs",
        "ur"
      ],
      [
        "Ġs",
        "chedu"
      ],
      [
        "le",
        "ct"
      ],
      [
        "he",
        "alth"
      ],
      [
        "Ġb",
        "en"
      ],
      [
        "Ġb",
        "rief"
      ],
      [
        "Ġc",
        "reat"
      ],
      [
        "Ġc",
        "ertain"
      ],
      [
        "Ġm",
        "at"
      ],
      [
        "Ġm",
        "ain"
      ],
      [
        "Ġm",
        "em"
      ],
      [
        "Ġd",
        "one"
      ],
      [
        "Ġf",
        "un"
      ],
      [
        "en",
        "ing"
      ],
      [
        "Ġn",
        "umber"
      ],
      [
        "Ġin",
        "f"
      ],
      [
        "ar",
        "ge"
      ],
      [
        "Ġth",
        "roat"
      ],
      [
        "Ġas",
        "soci"
      ],
      [
        "Ġfor",
        "m"
      ],
      [
        "Ġst",
        "imul"
      ],
      [
        "ver",
        "al"
      ],
      [
        "ĠH",
        "ints"
      ],
      [
        "Ġit",
        "s"
      ],
      [
        "ĠC",
        "PAP"
      ],
      [
        "Ġday",
        "s"
      ],
      [
        "Ġdo",
        "ing"
      ],
      [
        "Ġcon",
        "f"
      ],
      [
        "Ġbod",
        "ies"
      ],
      [
        "iv",
        "id"
      ],
      [
        "Ġen",
        "er"
      ],
      [
        "Ġse",
        "co"
      ],
      [
        "Ġse",
        "em"
      ],
      [
        "Ġse",
        "veral"
      ],
      [
        "cc",
        "ess"
      ],
      [
        "Ġqu",
        "ick"
      ],
      [
        "Ġso",
        "ft"
      ],
      [
        "Ġneed",
        "s"
      ],
      [
        "Ġneed",
        "ed"
      ],
      [
        "Ġeffect",
        "ive"
      ],
      [
        "way",
        "s"
      ],
      [
        "Ġres",
        "ult"
      ],
      [
        "os",
        "ed"
      ],
      [
        "Ġdep",
        "ri"
      ],
      [
        "Ġactiv",
        "ities"
      ],
      [
        "Ġairway",
        "s"
      ],
      [
        "Ġph",
        "ys"
      ],
      [
        "Ġpar",
        "alysis"
      ],
      [
        "Ġcondition",
        "s"
      ],
      [
        "fort",
        "able"
      ],
      [
        "Ġtemper",
        "ature"
      ],
      [
        "coura",
        "ging"
      ],
      [
        ")",
        ":"
      ],
      [
        "2",
        "0"
      ],
      [
        "d",
        "le"
      ],
      [
        "d",
        "ay"
      ],
      [
        "f",
        "f"
      ],
      [
        "g",
        "ies"
      ],
      [
        "i",
        "ps"
      ],
      [
        "i",
        "ence"
      ],
      [
        "n",
        "o"
      ],
      [
        "o",
        "nd"
      ],
      [
        "x",
        "yg"
      ],
      [
        "Ġt",
        "err"
      ],
      [
        "Ġa",
        "v"
      ],
      [
        "Ġa",
        "verage"
      ],
      [
        "Ġs",
        "ite"
      ],
      [
        "re",
        "st"
      ],
      [
        "ou",
        "n"
      ],
      [
        "Ġo",
        "b"
      ],
      [
        "at",
        "her"
      ],
      [
        "Ġb",
        "oth"
      ],
      [
        "Ġw",
        "av"
      ],
      [
        "Ġm",
        "ade"
      ],
      [
        "Ġd",
        "ru"
      ],
      [
        "Ġd",
        "ue"
      ],
      [
        "es",
        "pe"
      ],
      [
        "Ġto",
        "tal"
      ],
      [
        "is",
        "h"
      ],
      [
        "Ġp",
        "ower"
      ],
      [
        "it",
        "ute"
      ],
      [
        "Ġin",
        "d"
      ],
      [
        "om",
        "et"
      ],
      [
        "ple",
        "te"
      ],
      [
        "ĠA",
        "d"
      ],
      [
        "Ġwe",
        "ight"
      ],
      [
        "Ġwith",
        "out"
      ],
      [
        "ĠC",
        "og"
      ],
      [
        "ĠâĢ",
        "Ŀ"
      ],
      [
        "ĠD",
        "i"
      ],
      [
        "ĠD",
        "on"
      ],
      [
        "ĠD",
        "uring"
      ],
      [
        "Ġ1",
        "5"
      ],
      [
        "Ġne",
        "ck"
      ],
      [
        "ffe",
        "e"
      ],
      [
        "Ġad",
        "v"
      ],
      [
        "ĠN",
        "ight"
      ],
      [
        "Ġwhe",
        "re"
      ],
      [
        "Ġwhe",
        "ther"
      ],
      [
        "Ġde",
        "bt"
      ],
      [
        "ure",
        "s"
      ],
      [
        "ĠF",
        "oundation"
      ],
      [
        "Ġwork",
        "ers"
      ],
      [
        "iv",
        "en"
      ],
      [
        "Ġhow",
        "ever"
      ],
      [
        "Ġk",
        "ind"
      ],
      [
        "Ġpo",
        "s"
      ],
      [
        "Ġmedic",
        "ines"
      ],
      [
        "Ġti",
        "ps"
      ],
      [
        "Ġspe",
        "cialist"
      ],
      [
        "Ġcaus",
        "ed"
      ],
      [
        "Ġincre",
        "ase"
      ],
      [
        "Ġapp",
        "ear"
      ],
      [
        "Ġdep",
        "ression"
      ],
      [
        "Ġpat",
        "h"
      ],
      [
        "Ġlear",
        "ning"
      ],
      [
        "Ġrelie",
        "ve"
      ],
      [
        "Ġoccur",
        "s"
      ],
      [
        "Ġsug",
        "gest"
      ],
      [
        "ĠEn",
        "couraging"
      ],
      [
        "Ġpartic",
        "ip"
      ],
      [
        "Ġtyp",
        "ically"
      ],
      [
        "su",
        "es"
      ],
      [
        "Ġcell",
        "s"
      ],
      [
        "Ġloud",
        "ly"
      ],
      [
        "ĠWe",
        "b"
      ],
      [
        "Ġvar",
        "ious"
      ],
      [
        "ĠMedic",
        "ine"
      ],
      [
        "Ġtis",
        "sues"
      ],
      [
        "Ġmid",
        "dle"
      ],
      [
        "Ġfood",
        "s"
      ],
      [
        "Ġfollow",
        "ing"
      ],
      [
        "Ġben",
        "ef"
      ],
      [
        "xyg",
        "en"
      ],
      [
        "Ġwav",
        "es"
      ],
      [
        "espe",
        "cially"
      ],
      [
        "ĠCog",
        "nitive"
      ],
      [
        "3",
        "0"
      ],
      [
        "a",
        "i"
      ],
      [
        "a",
        "ches"
      ],
      [
        "c",
        "ing"
      ],
      [
        "c",
        "her"
      ],
      [
        "c",
        "ause"
      ],
      [
        "c",
        "us"
      ],
      [
        "f",
        "oundation"
      ],
      [
        "g",
        "r"
      ],
      [
        "i",
        "ents"
      ],
      [
        "k",
        "ing"
      ],
      [
        "l",
        "ing"
      ],
      [
        "l",
        "ain"
      ],
      [
        "l",
        "ier"
      ],
      [
        "o",
        "ve"
      ],
      [
        "t",
        "re"
      ],
      [
        "u",
        "bl"
      ],
      [
        "w",
        "h"
      ],
      [
        "Ġ",
        "rap"
      ],
      [
        "Ġt",
        "ell"
      ],
      [
        "Ġa",
        "ler"
      ],
      [
        "Ġs",
        "ame"
      ],
      [
        "re",
        "t"
      ],
      [
        "re",
        "ly"
      ],
      [
        "Ġo",
        "p"
      ],
      [
        "Ġo",
        "w"
      ],
      [
        "Ġo",
        "xygen"
      ],
      [
        "Ġw",
        "ent"
      ],
      [
        "Ġw",
        "alking"
      ],
      [
        "Ġw",
        "arm"
      ],
      [
        "Ġw",
        "atch"
      ],
      [
        "al",
        "ing"
      ],
      [
        "Ġy",
        "ear"
      ],
      [
        "Ġf",
        "amily"
      ],
      [
        "Ġp",
        "rom"
      ],
      [
        "it",
        "ed"
      ],
      [
        "an",
        "ge"
      ],
      [
        "Ġh",
        "y"
      ],
      [
        "Ġh",
        "ome"
      ],
      [
        "ic",
        "ot"
      ],
      [
        "Ġl",
        "it"
      ],
      [
        "Ġl",
        "ot"
      ],
      [
        "Ġl",
        "ater"
      ],
      [
        "Ġl",
        "ower"
      ],
      [
        "Ġre",
        "qu"
      ],
      [
        "ent",
        "ial"
      ],
      [
        "ĠT",
        "V"
      ],
      [
        "Ġg",
        "rou"
      ],
      [
        "et",
        "er"
      ],
      [
        "ur",
        "n"
      ],
      [
        "ot",
        "e"
      ],
      [
        "ir",
        "d"
      ],
      [
        "Ġnight",
        "time"
      ],
      [
        "ĠM",
        "ore"
      ],
      [
        "Ġ1",
        "2"
      ],
      [
        "Ġdis",
        "tra"
      ],
      [
        "ea",
        "d"
      ],
      [
        "ĠR",
        "el"
      ],
      [
        "qu",
        "ate"
      ],
      [
        "Ġex",
        "cess"
      ],
      [
        "ĠG",
        "et"
      ],
      [
        "Ġwork",
        "s"
      ],
      [
        "ru",
        "p"
      ],
      [
        "Ġen",
        "vironment"
      ],
      [
        "Ġsome",
        "thing"
      ],
      [
        "Ġsy",
        "ndrome"
      ],
      [
        "ie",
        "w"
      ],
      [
        "Ġpart",
        "n"
      ],
      [
        "Ġcont",
        "rib"
      ],
      [
        "Ġbec",
        "om"
      ],
      [
        "Ġpo",
        "or"
      ],
      [
        "Ġuse",
        "ful"
      ],
      [
        "ular",
        "ly"
      ],
      [
        "Ġev",
        "idence"
      ],
      [
        "Ġmedic",
        "ation"
      ],
      [
        "ĠAl",
        "so"
      ],
      [
        "ĠSt",
        "ud"
      ],
      [
        "Ġdrink",
        "s"
      ],
      [
        "Ġlo",
        "st"
      ],
      [
        "Ġincre",
        "ased"
      ],
      [
        "Ġfo",
        "cus"
      ],
      [
        "og",
        "a"
      ],
      [
        "Ġchan",
        "ge"
      ],
      [
        "Ġbehavior",
        "al"
      ],
      [
        "Ġrem",
        "ember"
      ],
      [
        "Ġshow",
        "s"
      ],
      [
        "Ġtea",
        "m"
      ],
      [
        "Ġsm",
        "all"
      ],
      [
        "Ġsign",
        "s"
      ],
      [
        "Ġpartic",
        "ularly"
      ],
      [
        "ail",
        "able"
      ],
      [
        "Ġdream",
        "s"
      ],
      [
        "Ġgrow",
        "th"
      ],
      [
        "Ġexper",
        "ience"
      ],
      [
        "Ġmusc",
        "les"
      ],
      [
        "Ġhapp",
        "ens"
      ],
      [
        "Ġdoes",
        "n"
      ],
      [
        "Ġpattern",
        "s"
      ],
      [
        "Ġsa",
        "fe"
      ],
      [
        "Ġdan",
        "ger"
      ],
      [
        "Ġnatur",
        "al"
      ],
      [
        "Ġunt",
        "il"
      ],
      [
        "Ġtrig",
        "ger"
      ],
      [
        "Ġbal",
        "ance"
      ],
      [
        "Ġhab",
        "its"
      ],
      [
        "Ġid",
        "ea"
      ],
      [
        "Ġener",
        "gy"
      ],
      [
        "Ġquick",
        "ly"
      ],
      [
        "Ġav",
        "ailable"
      ],
      [
        "omet",
        "imes"
      ],
      [
        "cher",
        "s"
      ],
      [
        "tre",
        "me"
      ],
      [
        "ubl",
        "ic"
      ],
      [
        "Ġrap",
        "id"
      ],
      [
        "icot",
        "ine"
      ],
      [
        "0",
        "5"
      ],
      [
        "S",
        "G"
      ],
      [
        "c",
        "ad"
      ],
      [
        "c",
        "lud"
      ],
      [
        "e",
        "le"
      ],
      [
        "f",
        "or"
      ],
      [
        "g",
        "in"
      ],
      [
        "g",
        "ative"
      ],
      [
        "m",
        "u"
      ],
      [
        "n",
        "g"
      ],
      [
        "o",
        "ok"
      ],
      [
        "r",
        "ic"
      ],
      [
        "r",
        "ation"
      ],
      [
        "u",
        "k"
      ],
      [
        "y",
        "le"
      ],
      [
        "Ġ",
        "ed"
      ],
      [
        "Ġa",
        "ble"
      ],
      [
        "Ġs",
        "ed"
      ],
      [
        "le",
        "n"
      ],
      [
        "le",
        "ase"
      ],
      [
        "at",
        "ory"
      ],
      [
        "er",
        "v"
      ],
      [
        "Ġb",
        "re"
      ],
      [
        "Ġb",
        "as"
      ],
      [
        "Ġc",
        "or"
      ],
      [
        "Ġc",
        "ra"
      ],
      [
        "Ġd",
        "row"
      ],
      [
        "al",
        "u"
      ],
      [
        "is",
        "es"
      ],
      [
        "is",
        "ed"
      ],
      [
        "is",
        "ts"
      ],
      [
        "Ġf",
        "lu"
      ],
      [
        "Ġin",
        "te"
      ],
      [
        "ar",
        "k"
      ],
      [
        "Ġh",
        "alf"
      ],
      [
        "Ġth",
        "ree"
      ],
      [
        "Ġst",
        "ret"
      ],
      [
        "ra",
        "ct"
      ],
      [
        "ot",
        "t"
      ],
      [
        "ĠA",
        "r"
      ],
      [
        "our",
        "ces"
      ],
      [
        "ĠSleep",
        "ing"
      ],
      [
        "ĠM",
        "uch"
      ],
      [
        "ĠâĢ",
        "ĺ"
      ],
      [
        "ĠD",
        "ep"
      ],
      [
        "Ġat",
        "tent"
      ],
      [
        "Ġ1",
        "8"
      ],
      [
        "Ġdo",
        "i"
      ],
      [
        "Ġpro",
        "v"
      ],
      [
        "Ġne",
        "cess"
      ],
      [
        "Ġne",
        "gative"
      ],
      [
        "ĠP",
        "age"
      ],
      [
        "Ġex",
        "tra"
      ],
      [
        "Ġex",
        "treme"
      ],
      [
        "ni",
        "vers"
      ],
      [
        "Ġr",
        "ate"
      ],
      [
        "est",
        "ions"
      ],
      [
        "ĠIn",
        "st"
      ],
      [
        "ĠIn",
        "te"
      ],
      [
        "ĠO",
        "r"
      ],
      [
        "Ġde",
        "v"
      ],
      [
        "pe",
        "ct"
      ],
      [
        "Ġse",
        "ve"
      ],
      [
        "Ġcom",
        "plete"
      ],
      [
        "Ġaw",
        "ay"
      ],
      [
        "ist",
        "ent"
      ],
      [
        "Ġco",
        "ffee"
      ],
      [
        "Ġpre",
        "s"
      ],
      [
        "Ġcont",
        "ain"
      ],
      [
        "Ġtreat",
        "ments"
      ],
      [
        "Ġper",
        "cent"
      ],
      [
        "oid",
        "s"
      ],
      [
        "Ġj",
        "o"
      ],
      [
        "Ġrest",
        "less"
      ],
      [
        "Ġlight",
        "s"
      ],
      [
        "aus",
        "es"
      ],
      [
        "un",
        "ity"
      ],
      [
        "Ġno",
        "ise"
      ],
      [
        "Ġtry",
        "ing"
      ],
      [
        "Ġlo",
        "ok"
      ],
      [
        "Ġincre",
        "ases"
      ],
      [
        "Ġstay",
        "ing"
      ],
      [
        "Ġpill",
        "s"
      ],
      [
        "Ġmind",
        "fulness"
      ],
      [
        "Ġtra",
        "vel"
      ],
      [
        "Ġcu",
        "p"
      ],
      [
        "Ġdevelop",
        "ing"
      ],
      [
        "Ġsug",
        "ar"
      ],
      [
        "ĠV",
        "eter"
      ],
      [
        "Ġeas",
        "ily"
      ],
      [
        "Ġche",
        "ck"
      ],
      [
        "Ġmon",
        "it"
      ],
      [
        "Ġmusc",
        "le"
      ],
      [
        "Ġtest",
        "ed"
      ],
      [
        "Ġprev",
        "ent"
      ],
      [
        "Ġperform",
        "ance"
      ],
      [
        "Ġbu",
        "ild"
      ],
      [
        "Ġgener",
        "ally"
      ],
      [
        "Ġhand",
        "out"
      ],
      [
        "Ġfun",
        "ction"
      ],
      [
        "Ġassoci",
        "ated"
      ],
      [
        "Ġphys",
        "ical"
      ],
      [
        "Ġterr",
        "ors"
      ],
      [
        "Ġpower",
        "ful"
      ],
      [
        "gr",
        "ative"
      ],
      [
        "Ġaler",
        "t"
      ],
      [
        "Ġop",
        "en"
      ],
      [
        "Ġow",
        "n"
      ],
      [
        "Ġdanger",
        "ous"
      ],
      [
        "Ġinte",
        "rest"
      ],
      [
        "Ġattent",
        "ion"
      ],
      [
        "nivers",
        "ity"
      ],
      [
        "ĠInte",
        "grative"
      ],
      [
        "ĠVeter",
        "ans"
      ],
      [
        "'",
        "t"
      ],
      [
        "1",
        "6"
      ],
      [
        "2",
        "01"
      ],
      [
        "B",
        "I"
      ],
      [
        "E",
        "P"
      ],
      [
        "H",
        "L"
      ],
      [
        "a",
        "pp"
      ],
      [
        "b",
        "i"
      ],
      [
        "d",
        "er"
      ],
      [
        "e",
        "x"
      ],
      [
        "f",
        "ety"
      ],
      [
        "g",
        "et"
      ],
      [
        "g",
        "ram"
      ],
      [
        "i",
        "x"
      ],
      [
        "i",
        "ally"
      ],
      [
        "i",
        "ans"
      ],
      [
        "j",
        "e"
      ],
      [
        "j",
        "ur"
      ],
      [
        "m",
        "in"
      ],
      [
        "m",
        "ail"
      ],
      [
        "n",
        "ter"
      ],
      [
        "p",
        "or"
      ],
      [
        "r",
        "im"
      ],
      [
        "s",
        "ic"
      ],
      [
        "u",
        "p"
      ],
      [
        "u",
        "ter"
      ],
      [
        "u",
        "ous"
      ],
      [
        "u",
        "als"
      ],
      [
        "v",
        "iew"
      ],
      [
        "Ġ",
        "room"
      ],
      [
        "Ġ",
        "enter"
      ],
      [
        "Ġ",
        "iron"
      ],
      [
        "Ġ",
        "especially"
      ],
      [
        "Ġt",
        "aken"
      ],
      [
        "Ġt",
        "ons"
      ],
      [
        "in",
        "ed"
      ],
      [
        "Ġs",
        "c"
      ],
      [
        "Ġs",
        "al"
      ],
      [
        "Ġs",
        "ometimes"
      ],
      [
        "he",
        "s"
      ],
      [
        "Ġo",
        "ils"
      ],
      [
        "at",
        "ic"
      ],
      [
        "er",
        "y"
      ],
      [
        "Ġc",
        "our"
      ],
      [
        "Ġc",
        "ould"
      ],
      [
        "Ġc",
        "ard"
      ],
      [
        "Ġm",
        "od"
      ],
      [
        "Ġd",
        "el"
      ],
      [
        "al",
        "len"
      ],
      [
        "Ġto",
        "w"
      ],
      [
        "is",
        "c"
      ],
      [
        "Ġf",
        "l"
      ],
      [
        "Ġf",
        "ul"
      ],
      [
        "Ġp",
        "l"
      ],
      [
        "Ġp",
        "lan"
      ],
      [
        "Ġp",
        "auses"
      ],
      [
        "it",
        "al"
      ],
      [
        "Ġn",
        "ap"
      ],
      [
        "Ġin",
        "s"
      ],
      [
        "Ġin",
        "st"
      ],
      [
        "Ġin",
        "fe"
      ],
      [
        "Ġin",
        "jur"
      ],
      [
        "ic",
        "s"
      ],
      [
        "Ġl",
        "ist"
      ],
      [
        "Ġre",
        "g"
      ],
      [
        "Ġre",
        "ve"
      ],
      [
        "Ġre",
        "as"
      ],
      [
        "Ġe",
        "l"
      ],
      [
        "Ġe",
        "at"
      ],
      [
        "Ġe",
        "nd"
      ],
      [
        "ĠS",
        "h"
      ],
      [
        "ĠS",
        "LE"
      ],
      [
        "st",
        "s"
      ],
      [
        "st",
        "ru"
      ],
      [
        "ĠT",
        "ele"
      ],
      [
        "Ġhe",
        "r"
      ],
      [
        "Ġu",
        "pp"
      ],
      [
        "id",
        "er"
      ],
      [
        "Ġst",
        "o"
      ],
      [
        "Ġst",
        "ill"
      ],
      [
        "Ġst",
        "op"
      ],
      [
        "Ġst",
        "rate"
      ],
      [
        "ĠA",
        "ccess"
      ],
      [
        "as",
        "omni"
      ],
      [
        "ĠH",
        "ave"
      ],
      [
        "ĠM",
        "ost"
      ],
      [
        "ut",
        "s"
      ],
      [
        "ps",
        "om"
      ],
      [
        "ri",
        "es"
      ],
      [
        "ri",
        "ate"
      ],
      [
        "Ġan",
        "t"
      ],
      [
        "Ġ1",
        "9"
      ],
      [
        "ĠR",
        "o"
      ],
      [
        "ive",
        "ly"
      ],
      [
        "Ġpro",
        "cess"
      ],
      [
        "ni",
        "h"
      ],
      [
        "ĠN",
        "e"
      ],
      [
        "ĠN",
        "arcolepsy"
      ],
      [
        "Ġr",
        "ather"
      ],
      [
        "Ġwor",
        "ry"
      ],
      [
        "ĠE",
        "psom"
      ],
      [
        "Ġde",
        "c"
      ],
      [
        "Ġcom",
        "fortable"
      ],
      [
        "Ġaw",
        "are"
      ],
      [
        "ĠTh",
        "ink"
      ],
      [
        "Ġmed",
        "itation"
      ],
      [
        "Ġmu",
        "sic"
      ],
      [
        "Ġme",
        "as"
      ],
      [
        "Ġqu",
        "estions"
      ],
      [
        "ig",
        "ue"
      ],
      [
        "ne",
        "y"
      ],
      [
        "per",
        "act"
      ],
      [
        "ĠWh",
        "ole"
      ],
      [
        "Ġact",
        "ive"
      ],
      [
        "Ġclo",
        "s"
      ],
      [
        "Ġres",
        "ults"
      ],
      [
        "os",
        "ine"
      ],
      [
        "Ġar",
        "ound"
      ],
      [
        "ger",
        "y"
      ],
      [
        "ĠU",
        "n"
      ],
      [
        "ĠU",
        "niversity"
      ],
      [
        "Ġwee",
        "ke"
      ],
      [
        "Ġshould",
        "ers"
      ],
      [
        "ĠDo",
        "ctors"
      ],
      [
        "Ġaffect",
        "ed"
      ],
      [
        "Ġear",
        "lier"
      ],
      [
        "Ġinclud",
        "ing"
      ],
      [
        "Ġ201",
        "6"
      ],
      [
        "Ġrelax",
        "ation"
      ],
      [
        "Ġeven",
        "ing"
      ],
      [
        "Ġmove",
        "ments"
      ],
      [
        "be",
        "ing"
      ],
      [
        "ĠBe",
        "cause"
      ],
      [
        "Ġawaken",
        "ings"
      ],
      [
        "cou",
        "nter"
      ],
      [
        "Ġregular",
        "ly"
      ],
      [
        "Ġeas",
        "ier"
      ],
      [
        "Ġunder",
        "st"
      ],
      [
        "ĠEx",
        "erc"
      ],
      [
        "sleep",
        "foundation"
      ],
      [
        "yg",
        "ien"
      ],
      [
        "Ġacc",
        "id"
      ],
      [
        "Ġmon",
        "th"
      ],
      [
        "rib",
        "ed"
      ],
      [
        "Ġcontin",
        "ue"
      ],
      [
        "Ġey",
        "es"
      ],
      [
        "ĠAmeric",
        "an"
      ],
      [
        "ĠAmeric",
        "ans"
      ],
      [
        "Ġsubst",
        "ance"
      ],
      [
        "iz",
        "e"
      ],
      [
        "Ġhtt",
        "ps"
      ],
      [
        "rop",
        "riate"
      ],
      [
        "Ġpresc",
        "ribed"
      ],
      [
        "ydr",
        "ated"
      ],
      [
        "Ġfat",
        "igue"
      ],
      [
        "Ġaden",
        "osine"
      ],
      [
        "Ġrecord",
        "ing"
      ],
      [
        "ph",
        "one"
      ],
      [
        "Ġir",
        "rit"
      ],
      [
        "Ġseco",
        "nds"
      ],
      [
        "Ġdepri",
        "ved"
      ],
      [
        "Ġob",
        "es"
      ],
      [
        "Ġbenef",
        "its"
      ],
      [
        "Ġprom",
        "ote"
      ],
      [
        "Ġhy",
        "peract"
      ],
      [
        "Ġrequ",
        "ire"
      ],
      [
        "ĠRel",
        "ax"
      ],
      [
        "Ġexcess",
        "ive"
      ],
      [
        "rup",
        "ts"
      ],
      [
        "Ġbre",
        "ak"
      ],
      [
        "Ġstret",
        "ch"
      ],
      [
        "ĠInst",
        "itute"
      ],
      [
        "Ġseve",
        "re"
      ],
      [
        "HL",
        "BI"
      ],
      [
        "Ġtons",
        "ils"
      ],
      [
        "Ġinjur",
        "y"
      ],
      [
        "ĠSLE",
        "EP"
      ],
      [
        "ĠTele",
        "phone"
      ],
      [
        "Ġupp",
        "er"
      ],
      [
        "asomni",
        "as"
      ],
      [
        "ygien",
        "e"
      ],
      [
        ".",
        "âĢĿ"
      ],
      [
        "0",
        "0"
      ],
      [
        "5",
        "6"
      ],
      [
        "L",
        "T"
      ],
      [
        "S",
        "leep"
      ],
      [
        "U",
        "R"
      ],
      [
        "a",
        "w"
      ],
      [
        "a",
        "ving"
      ],
      [
        "b",
        "o"
      ],
      [
        "c",
        "ular"
      ],
      [
        "d",
        "ition"
      ],
      [
        "e",
        "red"
      ],
      [
        "e",
        "quate"
      ],
      [
        "f",
        "er"
      ],
      [
        "g",
        "an"
      ],
      [
        "h",
        "l"
      ],
      [
        "h",
        "m"
      ],
      [
        "h",
        "yth"
      ],
      [
        "i",
        "an"
      ],
      [
        "i",
        "ent"
      ],
      [
        "l",
        "ass"
      ],
      [
        "m",
        "p"
      ],
      [
        "m",
        "ing"
      ],
      [
        "m",
        "it"
      ],
      [
        "n",
        "ot"
      ],
      [
        "n",
        "ormal"
      ],
      [
        "o",
        "ea"
      ],
      [
        "p",
        "ing"
      ],
      [
        "r",
        "ay"
      ],
      [
        "s",
        "ue"
      ],
      [
        "t",
        "le"
      ],
      [
        "u",
        "id"
      ],
      [
        "v",
        "en"
      ],
      [
        "v",
        "as"
      ],
      [
        "w",
        "or"
      ],
      [
        "y",
        "ing"
      ],
      [
        "Ġt",
        "es"
      ],
      [
        "Ġt",
        "ru"
      ],
      [
        "Ġa",
        "c"
      ],
      [
        "Ġa",
        "ch"
      ],
      [
        "in",
        "s"
      ],
      [
        "Ġs",
        "im"
      ],
      [
        "Ġs",
        "ci"
      ],
      [
        "Ġs",
        "ens"
      ],
      [
        "he",
        "d"
      ],
      [
        "ep",
        "t"
      ],
      [
        "at",
        "ives"
      ],
      [
        "Ġb",
        "ad"
      ],
      [
        "Ġb",
        "ig"
      ],
      [
        "Ġb",
        "right"
      ],
      [
        "Ġw",
        "on"
      ],
      [
        "Ġw",
        "alk"
      ],
      [
        "or",
        "ts"
      ],
      [
        "Ġc",
        "ur"
      ],
      [
        "Ġc",
        "ount"
      ],
      [
        "Ġc",
        "ases"
      ],
      [
        "Ġc",
        "enter"
      ],
      [
        "Ġc",
        "oun"
      ],
      [
        "Ġm",
        "ach"
      ],
      [
        "Ġd",
        "ro"
      ],
      [
        "Ġto",
        "day"
      ],
      [
        "is",
        "ing"
      ],
      [
        "Ġf",
        "ight"
      ],
      [
        "Ġp",
        "ot"
      ],
      [
        "Ġp",
        "ract"
      ],
      [
        "Ġn",
        "orm"
      ],
      [
        "Ġn",
        "ose"
      ],
      [
        "Ġl",
        "ag"
      ],
      [
        "Ġl",
        "ive"
      ],
      [
        "Ġl",
        "au"
      ],
      [
        "Ġl",
        "ose"
      ],
      [
        "Ġl",
        "un"
      ],
      [
        "Ġbe",
        "gin"
      ],
      [
        "Ġre",
        "a"
      ],
      [
        "Ġre",
        "view"
      ],
      [
        "im",
        "al"
      ],
      [
        "ĠS",
        "pe"
      ],
      [
        "ĠS",
        "ee"
      ],
      [
        "st",
        "hm"
      ],
      [
        "Ġg",
        "iven"
      ],
      [
        "th",
        "od"
      ],
      [
        "th",
        "ird"
      ],
      [
        "id",
        "s"
      ],
      [
        "ch",
        "ni"
      ],
      [
        "Ġwe",
        "ar"
      ],
      [
        "Ġwe",
        "ak"
      ],
      [
        "ĠM",
        "c"
      ],
      [
        "ĠM",
        "y"
      ],
      [
        "ĠM",
        "ind"
      ],
      [
        "Ġsu",
        "n"
      ],
      [
        "Ġsu",
        "s"
      ],
      [
        "ĠC",
        "o"
      ],
      [
        "ĠC",
        "ent"
      ],
      [
        "ĠC",
        "enter"
      ],
      [
        "ĠC",
        "ertain"
      ],
      [
        "ri",
        "pt"
      ],
      [
        "ĠD",
        "rink"
      ],
      [
        "ĠThe",
        "n"
      ],
      [
        "ĠThe",
        "rapy"
      ],
      [
        "out",
        "ine"
      ],
      [
        "Ġ1",
        "3"
      ],
      [
        "Ġ1",
        "4"
      ],
      [
        "Ġ1",
        "6"
      ],
      [
        "ĠR",
        "est"
      ],
      [
        "Ġdo",
        "se"
      ],
      [
        "qu",
        "es"
      ],
      [
        "Ġpro",
        "te"
      ],
      [
        "ĠW",
        "ith"
      ],
      [
        "ill",
        "s"
      ],
      [
        "ill",
        "ion"
      ],
      [
        "Ġch",
        "allen"
      ],
      [
        "art",
        "ment"
      ],
      [
        "Ġad",
        "ole"
      ],
      [
        "Ġad",
        "equate"
      ],
      [
        "Ġget",
        "s"
      ],
      [
        "Ġwor",
        "ld"
      ],
      [
        "est",
        "yle"
      ],
      [
        "Ġcon",
        "cent"
      ],
      [
        "ĠIn",
        "formation"
      ],
      [
        "ĠO",
        "n"
      ],
      [
        "ĠF",
        "ax"
      ],
      [
        "ĠHe",
        "art"
      ],
      [
        "du",
        "ction"
      ],
      [
        "Ġdi",
        "et"
      ],
      [
        "pn",
        "oea"
      ],
      [
        "ist",
        "ration"
      ],
      [
        "ĠTh",
        "at"
      ],
      [
        "Ġme",
        "ans"
      ],
      [
        "Ġme",
        "als"
      ],
      [
        "ĠL",
        "e"
      ],
      [
        "ie",
        "ve"
      ],
      [
        "ous",
        "als"
      ],
      [
        "Ġover",
        "we"
      ],
      [
        "Ġover",
        "night"
      ],
      [
        "ĠWh",
        "ile"
      ],
      [
        "Ġtreat",
        "ed"
      ],
      [
        "Ġ5",
        "0"
      ],
      [
        "Ġj",
        "et"
      ],
      [
        "Ġafter",
        "no"
      ],
      [
        "Ġlight",
        "er"
      ],
      [
        "Ġar",
        "t"
      ],
      [
        "ative",
        "ly"
      ],
      [
        "Ġcaus",
        "ing"
      ],
      [
        "Ġdep",
        "end"
      ],
      [
        "ww",
        "w"
      ],
      [
        "Ġsp",
        "ine"
      ],
      [
        "Ġ201",
        "4"
      ],
      [
        "Ġdifficult",
        "ies"
      ],
      [
        "Ġrelie",
        "ved"
      ],
      [
        "ĠDisord",
        "er"
      ],
      [
        "Ġcu",
        "es"
      ],
      [
        "Ġcu",
        "ps"
      ],
      [
        "rit",
        "ish"
      ],
      [
        "cho",
        "logical"
      ],
      [
        "Ġdiagn",
        "osed"
      ],
      [
        "Ġtyp",
        "es"
      ],
      [
        "Ġprodu",
        "ction"
      ],
      [
        "ĠPro",
        "blem"
      ],
      [
        "Ġcons",
        "istent"
      ],
      [
        "ĠEv",
        "en"
      ],
      [
        "Ġcomp",
        "uter"
      ],
      [
        "Ġra",
        "rely"
      ],
      [
        "Ġread",
        "ing"
      ],
      [
        "ĠAn",
        "other"
      ],
      [
        "Ġhead",
        "aches"
      ],
      [
        "Ġro",
        "ad"
      ],
      [
        "Ġte",
        "chni"
      ],
      [
        "Ġtask",
        "s"
      ],
      [
        "Ġhtt",
        "p"
      ],
      [
        "Ġthink",
        "ing"
      ],
      [
        "Ġem",
        "ot"
      ],
      [
        "Ġexp",
        "lain"
      ],
      [
        "Ġsk",
        "in"
      ],
      [
        "Ġsur",
        "gery"
      ],
      [
        "Ġmat",
        "ter"
      ],
      [
        "Ġmem",
        "ory"
      ],
      [
        "Ġconf",
        "us"
      ],
      [
        "Ġpos",
        "itive"
      ],
      [
        "Ġpath",
        "ways"
      ],
      [
        "ai",
        "red"
      ],
      [
        "Ġlot",
        "s"
      ],
      [
        "Ġdistra",
        "ctions"
      ],
      [
        "Ġpartn",
        "er"
      ],
      [
        "Ġcontrib",
        "ute"
      ],
      [
        "Ġbecom",
        "es"
      ],
      [
        "ĠStud",
        "ies"
      ],
      [
        "mu",
        "ne"
      ],
      [
        "Ġbas",
        "is"
      ],
      [
        "Ġcor",
        "rect"
      ],
      [
        "Ġdrow",
        "sy"
      ],
      [
        "ĠDep",
        "artment"
      ],
      [
        "Ġnecess",
        "ary"
      ],
      [
        "je",
        "ct"
      ],
      [
        "Ġcard",
        "io"
      ],
      [
        "Ġful",
        "ly"
      ],
      [
        "ĠAccess",
        "ed"
      ],
      [
        "Ġweeke",
        "nds"
      ],
      [
        "Ġaccid",
        "ents"
      ],
      [
        "hl",
        "bi"
      ],
      [
        "hyth",
        "m"
      ],
      [
        "Ġtes",
        "ts"
      ],
      [
        "Ġdro",
        "ps"
      ],
      [
        "Ġnorm",
        "ally"
      ],
      [
        "Ġlun",
        "gs"
      ],
      [
        "sthm",
        "a"
      ],
      [
        "Ġweak",
        "ness"
      ],
      [
        "Ġadole",
        "sc"
      ],
      [
        "Ġoverwe",
        "ight"
      ],
      [
        "Ġafterno",
        "on"
      ],
      [
        "Ġtechni",
        "ques"
      ],
      [
        "1",
        "3"
      ],
      [
        "1",
        "5"
      ],
      [
        "2",
        "1"
      ],
      [
        "5",
        "2"
      ],
      [
        "7",
        "3"
      ],
      [
        "9",
        "7"
      ],
      [
        "B",
        "T"
      ],
      [
        "B",
        "ur"
      ],
      [
        "E",
        "A"
      ],
      [
        "E",
        "N"
      ],
      [
        "O",
        "N"
      ],
      [
        "O",
        "R"
      ],
      [
        "c",
        "on"
      ],
      [
        "e",
        "c"
      ],
      [
        "e",
        "ers"
      ],
      [
        "g",
        "g"
      ],
      [
        "g",
        "n"
      ],
      [
        "g",
        "ress"
      ],
      [
        "h",
        "alf"
      ],
      [
        "i",
        "a"
      ],
      [
        "i",
        "ed"
      ],
      [
        "i",
        "ple"
      ],
      [
        "l",
        "ine"
      ],
      [
        "l",
        "ike"
      ],
      [
        "m",
        "ed"
      ],
      [
        "n",
        "ed"
      ],
      [
        "n",
        "et"
      ],
      [
        "n",
        "hlbi"
      ],
      [
        "o",
        "ci"
      ],
      [
        "o",
        "ving"
      ],
      [
        "p",
        "ie"
      ],
      [
        "p",
        "ite"
      ],
      [
        "r",
        "ong"
      ],
      [
        "r",
        "ans"
      ],
      [
        "s",
        "ide"
      ],
      [
        "t",
        "y"
      ],
      [
        "u",
        "ll"
      ],
      [
        "u",
        "nt"
      ],
      [
        "v",
        "ol"
      ],
      [
        "w",
        "he"
      ],
      [
        "Ġ",
        "&"
      ],
      [
        "Ġ",
        "/"
      ],
      [
        "Ġ",
        "z"
      ],
      [
        "Ġ",
        "ep"
      ],
      [
        "Ġ",
        "ess"
      ],
      [
        "Ġ",
        "est"
      ],
      [
        "Ġ",
        "ide"
      ],
      [
        "Ġ",
        "ice"
      ],
      [
        "Ġt",
        "ion"
      ],
      [
        "Ġa",
        "sthma"
      ],
      [
        "in",
        "ce"
      ],
      [
        "in",
        "ate"
      ],
      [
        "in",
        "clud"
      ],
      [
        "Ġs",
        "w"
      ],
      [
        "Ġs",
        "er"
      ],
      [
        "Ġs",
        "our"
      ],
      [
        "Ġs",
        "we"
      ],
      [
        "re",
        "sh"
      ],
      [
        "at",
        "s"
      ],
      [
        "Ġb",
        "ott"
      ],
      [
        "Ġw",
        "ind"
      ],
      [
        "Ġw",
        "rit"
      ],
      [
        "Ġm",
        "et"
      ],
      [
        "Ġm",
        "ild"
      ],
      [
        "Ġm",
        "ask"
      ],
      [
        "Ġm",
        "ass"
      ],
      [
        "Ġd",
        "ry"
      ],
      [
        "Ġd",
        "rop"
      ],
      [
        "Ġto",
        "ld"
      ],
      [
        "Ġto",
        "ol"
      ],
      [
        "Ġy",
        "oga"
      ],
      [
        "Ġf",
        "our"
      ],
      [
        "Ġf",
        "ru"
      ],
      [
        "Ġf",
        "low"
      ],
      [
        "en",
        "cy"
      ],
      [
        "Ġp",
        "al"
      ],
      [
        "Ġp",
        "ur"
      ],
      [
        "Ġp",
        "lace"
      ],
      [
        "it",
        "her"
      ],
      [
        "an",
        "age"
      ],
      [
        "an",
        "ces"
      ],
      [
        "Ġn",
        "ar"
      ],
      [
        "Ġn",
        "icotine"
      ],
      [
        "Ġin",
        "vol"
      ],
      [
        "Ġl",
        "ab"
      ],
      [
        "Ġl",
        "arge"
      ],
      [
        "Ġbe",
        "l"
      ],
      [
        "ly",
        "ing"
      ],
      [
        "Ġre",
        "ally"
      ],
      [
        "Ġre",
        "lease"
      ],
      [
        "Ġe",
        "lect"
      ],
      [
        "Ġe",
        "ither"
      ],
      [
        "ĠS",
        "p"
      ],
      [
        "ĠS",
        "u"
      ],
      [
        "ĠS",
        "y"
      ],
      [
        "Ġor",
        "der"
      ],
      [
        "ight",
        "en"
      ],
      [
        "ĠT",
        "ra"
      ],
      [
        "ĠT",
        "rans"
      ],
      [
        "ĠI",
        "nd"
      ],
      [
        "ro",
        "ke"
      ],
      [
        "ro",
        "duction"
      ],
      [
        "Ġas",
        "s"
      ],
      [
        "Ġhe",
        "at"
      ],
      [
        "Ġu",
        "r"
      ],
      [
        "Ġst",
        "roke"
      ],
      [
        "ur",
        "ther"
      ],
      [
        "as",
        "p"
      ],
      [
        "Ġal",
        "m"
      ],
      [
        "ĠM",
        "ake"
      ],
      [
        "ĠM",
        "elatonin"
      ],
      [
        "ĠM",
        "akes"
      ],
      [
        "Ġle",
        "t"
      ],
      [
        "ag",
        "ed"
      ],
      [
        "ĠC",
        "linical"
      ],
      [
        "ri",
        "an"
      ],
      [
        "Ġdis",
        "c"
      ],
      [
        "Ġsh",
        "all"
      ],
      [
        "Ġpro",
        "per"
      ],
      [
        "ort",
        "is"
      ],
      [
        "Ġ2",
        "2"
      ],
      [
        "Ġ2",
        "4"
      ],
      [
        "Ġ2",
        "5"
      ],
      [
        "ĠW",
        "alking"
      ],
      [
        "ĠW",
        "isc"
      ],
      [
        "ĠP",
        "h"
      ],
      [
        "ĠP",
        "at"
      ],
      [
        "ĠP",
        "lace"
      ],
      [
        "ĠN",
        "HLBI"
      ],
      [
        "Ġr",
        "id"
      ],
      [
        "Ġr",
        "ice"
      ],
      [
        "Ġr",
        "ates"
      ],
      [
        "Ġr",
        "outine"
      ],
      [
        "Ġr",
        "hythm"
      ],
      [
        "ol",
        "ate"
      ],
      [
        "ol",
        "unt"
      ],
      [
        "Ġcon",
        "ne"
      ],
      [
        "Ġwhe",
        "el"
      ],
      [
        "il",
        "k"
      ],
      [
        "il",
        "ure"
      ],
      [
        "ĠB",
        "et"
      ],
      [
        "ĠB",
        "oth"
      ],
      [
        "ĠIn",
        "t"
      ],
      [
        "ĠO",
        "ur"
      ],
      [
        "ĠO",
        "ffic"
      ],
      [
        "ĠF",
        "ind"
      ],
      [
        "ĠF",
        "ood"
      ],
      [
        "Ġim",
        "mune"
      ],
      [
        "iv",
        "ity"
      ],
      [
        "Ġse",
        "en"
      ],
      [
        "ant",
        "ity"
      ],
      [
        "Ġ3",
        "01"
      ],
      [
        "ong",
        "est"
      ],
      [
        "Ġdi",
        "rect"
      ],
      [
        "ist",
        "ic"
      ],
      [
        "Ġsn",
        "ort"
      ],
      [
        "Ġsn",
        "ack"
      ],
      [
        "Ġimp",
        "aired"
      ],
      [
        "red",
        "ients"
      ],
      [
        "Ġk",
        "ne"
      ],
      [
        "Ġqu",
        "antity"
      ],
      [
        "ĠL",
        "ack"
      ],
      [
        "ĠL",
        "ear"
      ],
      [
        "Ġv",
        "olunt"
      ],
      [
        "Ġover",
        "all"
      ],
      [
        "ult",
        "iple"
      ],
      [
        "Ġus",
        "ing"
      ],
      [
        "ren",
        "g"
      ],
      [
        "Ġact",
        "ually"
      ],
      [
        "Ġout",
        "side"
      ],
      [
        "Ġany",
        "thing"
      ],
      [
        "Ġclo",
        "se"
      ],
      [
        "Ġmedic",
        "ine"
      ],
      [
        "Ġfa",
        "ilure"
      ],
      [
        "Ġdoctor",
        "s"
      ],
      [
        "os",
        "ure"
      ],
      [
        "Ġar",
        "m"
      ],
      [
        "ĠAl",
        "tern"
      ],
      [
        "ĠDo",
        "es"
      ],
      [
        "Ġaffect",
        "s"
      ],
      [
        "Ġdrink",
        "ing"
      ],
      [
        "la",
        "nd"
      ],
      [
        "la",
        "im"
      ],
      [
        "ok",
        "ing"
      ],
      [
        "Ġapp",
        "ro"
      ],
      [
        "ĠDis",
        "rupts"
      ],
      [
        "Ġinclud",
        "es"
      ],
      [
        "Ġ6",
        "0"
      ],
      [
        "Ġsp",
        "ent"
      ],
      [
        "Ġocc",
        "as"
      ],
      [
        "Ġun",
        "com"
      ],
      [
        "Ġdifficult",
        "y"
      ],
      [
        "ons",
        "in"
      ],
      [
        "ĠMed",
        "itation"
      ],
      [
        "Ġrelax",
        "ing"
      ],
      [
        "Ġsnore",
        "d"
      ],
      [
        "Ġweek",
        "s"
      ],
      [
        "op",
        "h"
      ],
      [
        "vers",
        "ation"
      ],
      [
        "Ġmove",
        "ment"
      ],
      [
        "ĠResear",
        "chers"
      ],
      [
        "Ġtem",
        "por"
      ],
      [
        "ĠEn",
        "ough"
      ],
      [
        "Ġgreat",
        "er"
      ],
      [
        "ĠCh",
        "ronic"
      ],
      [
        "Ġref",
        "er"
      ],
      [
        "ĠPro",
        "gram"
      ],
      [
        "Ġspend",
        "ing"
      ],
      [
        "Ġing",
        "redients"
      ],
      [
        "Ġinter",
        "fere"
      ],
      [
        "Ġlim",
        "it"
      ],
      [
        "Ġlim",
        "bs"
      ],
      [
        "Ġread",
        "y"
      ],
      [
        "Ġey",
        "e"
      ],
      [
        "ale",
        "rian"
      ],
      [
        "air",
        "s"
      ],
      [
        "sy",
        "chological"
      ],
      [
        "Ġdan",
        "cing"
      ],
      [
        "Ġexp",
        "osure"
      ],
      [
        "Ġaden",
        "oids"
      ],
      [
        "Ġsk",
        "ills"
      ],
      [
        "Ġschedu",
        "le"
      ],
      [
        "Ġschedu",
        "les"
      ],
      [
        "Ġbrief",
        "ly"
      ],
      [
        "Ġmain",
        "tain"
      ],
      [
        "Ġform",
        "s"
      ],
      [
        "Ġseem",
        "s"
      ],
      [
        "Ġind",
        "ivid"
      ],
      [
        "ĠAd",
        "min"
      ],
      [
        "Ġyear",
        "s"
      ],
      [
        "Ġgrou",
        "ps"
      ],
      [
        "Ġsed",
        "atives"
      ],
      [
        "alu",
        "ation"
      ],
      [
        "Ġdev",
        "ices"
      ],
      [
        "Ġjo",
        "int"
      ],
      [
        "Ġmod",
        "er"
      ],
      [
        "Ġdel",
        "ay"
      ],
      [
        "Ġinst",
        "ead"
      ],
      [
        "Ġinfe",
        "ctions"
      ],
      [
        "Ġreg",
        "ul"
      ],
      [
        "Ġreve",
        "al"
      ],
      [
        "Ġreas",
        "ons"
      ],
      [
        "Ġsto",
        "ps"
      ],
      [
        "Ġstrate",
        "gies"
      ],
      [
        "Ġmeas",
        "ures"
      ],
      [
        "Ġunderst",
        "and"
      ],
      [
        "ĠExerc",
        "ise"
      ],
      [
        "Ġobes",
        "ity"
      ],
      [
        "ĠRelax",
        "ation"
      ],
      [
        "Ġstretch",
        "ing"
      ],
      [
        "wor",
        "k"
      ],
      [
        "Ġsci",
        "ent"
      ],
      [
        "Ġsens",
        "ations"
      ],
      [
        "Ġlau",
        "gh"
      ],
      [
        "Ġrea",
        "ction"
      ],
      [
        "ĠMc",
        "Bur"
      ],
      [
        "Ġsus",
        "pect"
      ],
      [
        "ript",
        "ion"
      ],
      [
        "Ġemot",
        "ional"
      ],
      [
        "Ġcardio",
        "vas"
      ],
      [
        "Ġadolesc",
        "ents"
      ],
      [
        "Ġide",
        "as"
      ],
      [
        "Ġsour",
        "ce"
      ],
      [
        "ĠWisc",
        "onsin"
      ],
      [
        "ĠOffic",
        "e"
      ],
      [
        "Ġkne",
        "es"
      ],
      [
        "Ġvolunt",
        "eers"
      ],
      [
        "ĠAdmin",
        "istration"
      ],
      [
        "ĠMcBur",
        "ney"
      ],
      [
        ".",
        ","
      ],
      [
        "1",
        "2"
      ],
      [
        "1",
        "4"
      ],
      [
        "1",
        "9"
      ],
      [
        "2",
        "4"
      ],
      [
        "2",
        "8"
      ],
      [
        "5",
        "0"
      ],
      [
        "?",
        "âĢĿ"
      ],
      [
        "C",
        "T"
      ],
      [
        "D",
        "E"
      ],
      [
        "E",
        "S"
      ],
      [
        "H",
        "E"
      ],
      [
        "M",
        "S"
      ],
      [
        "M",
        "ad"
      ],
      [
        "T",
        "I"
      ],
      [
        "a",
        "pt"
      ],
      [
        "a",
        "ffeine"
      ],
      [
        "b",
        "ing"
      ],
      [
        "b",
        "ic"
      ],
      [
        "b",
        "out"
      ],
      [
        "b",
        "ac"
      ],
      [
        "c",
        "olate"
      ],
      [
        "d",
        "d"
      ],
      [
        "d",
        "e"
      ],
      [
        "f",
        "ess"
      ],
      [
        "f",
        "ten"
      ],
      [
        "f",
        "low"
      ],
      [
        "h",
        "ind"
      ],
      [
        "h",
        "aps"
      ],
      [
        "i",
        "et"
      ],
      [
        "i",
        "um"
      ],
      [
        "k",
        "s"
      ],
      [
        "l",
        "s"
      ],
      [
        "l",
        "am"
      ],
      [
        "m",
        "unity"
      ],
      [
        "o",
        "f"
      ],
      [
        "o",
        "ost"
      ],
      [
        "o",
        "cre"
      ],
      [
        "o",
        "bic"
      ],
      [
        "o",
        "colate"
      ],
      [
        "p",
        "d"
      ],
      [
        "p",
        "r"
      ],
      [
        "s",
        "w"
      ],
      [
        "s",
        "es"
      ],
      [
        "t",
        "ed"
      ],
      [
        "t",
        "ion"
      ],
      [
        "t",
        "urn"
      ],
      [
        "u",
        "ro"
      ],
      [
        "v",
        "ul"
      ],
      [
        "w",
        "ake"
      ],
      [
        "w",
        "alking"
      ],
      [
        "x",
        "t"
      ],
      [
        "x",
        "y"
      ],
      [
        "y",
        "pe"
      ],
      [
        "Ġt",
        "r"
      ],
      [
        "Ġt",
        "u"
      ],
      [
        "Ġt",
        "im"
      ],
      [
        "Ġt",
        "ong"
      ],
      [
        "Ġt",
        "akes"
      ],
      [
        "Ġt",
        "urn"
      ],
      [
        "Ġt",
        "ype"
      ],
      [
        "Ġa",
        "pnoea"
      ],
      [
        "Ġs",
        "ol"
      ],
      [
        "Ġs",
        "ound"
      ],
      [
        "Ġs",
        "ick"
      ],
      [
        "Ġs",
        "ince"
      ],
      [
        "le",
        "x"
      ],
      [
        "re",
        "gular"
      ],
      [
        "Ġo",
        "pt"
      ],
      [
        "Ġo",
        "pp"
      ],
      [
        "Ġo",
        "il"
      ],
      [
        "ep",
        "ress"
      ],
      [
        "er",
        "obic"
      ],
      [
        "Ġb",
        "ook"
      ],
      [
        "Ġb",
        "oost"
      ],
      [
        "or",
        "n"
      ],
      [
        "or",
        "ies"
      ],
      [
        "or",
        "ative"
      ],
      [
        "or",
        "atory"
      ],
      [
        "Ġc",
        "l"
      ],
      [
        "Ġc",
        "ent"
      ],
      [
        "Ġc",
        "ir"
      ],
      [
        "Ġc",
        "ure"
      ],
      [
        "Ġc",
        "ortis"
      ],
      [
        "Ġc",
        "laim"
      ],
      [
        "Ġm",
        "is"
      ],
      [
        "Ġm",
        "ent"
      ],
      [
        "Ġm",
        "ilk"
      ],
      [
        "Ġm",
        "ultiple"
      ],
      [
        "Ġd",
        "ark"
      ],
      [
        "on",
        "al"
      ],
      [
        "on",
        "se"
      ],
      [
        "is",
        "on"
      ],
      [
        "Ġf",
        "in"
      ],
      [
        "Ġf",
        "ix"
      ],
      [
        "Ġf",
        "ull"
      ],
      [
        "Ġp",
        "ay"
      ],
      [
        "an",
        "cy"
      ],
      [
        "ed",
        "ies"
      ],
      [
        "Ġn",
        "ow"
      ],
      [
        "ar",
        "ily"
      ],
      [
        "Ġh",
        "ist"
      ],
      [
        "Ġh",
        "os"
      ],
      [
        "Ġh",
        "yp"
      ],
      [
        "Ġh",
        "ygiene"
      ],
      [
        "Ġbe",
        "hind"
      ],
      [
        "Ġre",
        "al"
      ],
      [
        "Ġre",
        "ce"
      ],
      [
        "Ġre",
        "du"
      ],
      [
        "Ġre",
        "turn"
      ],
      [
        "Ġe",
        "f"
      ],
      [
        "Ġe",
        "ating"
      ],
      [
        "se",
        "t"
      ],
      [
        "se",
        "quent"
      ],
      [
        "ĠS",
        "et"
      ],
      [
        "st",
        "er"
      ],
      [
        "ent",
        "le"
      ],
      [
        "ĠT",
        "ake"
      ],
      [
        "Ġg",
        "ra"
      ],
      [
        "Ġg",
        "uide"
      ],
      [
        "ro",
        "ss"
      ],
      [
        "Ġcan",
        "not"
      ],
      [
        "Ġhe",
        "al"
      ],
      [
        "et",
        "ic"
      ],
      [
        "id",
        "epress"
      ],
      [
        "ore",
        "d"
      ],
      [
        "Ġst",
        "ru"
      ],
      [
        "Ġst",
        "rain"
      ],
      [
        "Ġst",
        "rong"
      ],
      [
        "ur",
        "al"
      ],
      [
        "if",
        "e"
      ],
      [
        "ĠA",
        "pnea"
      ],
      [
        "ĠA",
        "ff"
      ],
      [
        "ĠA",
        "cad"
      ],
      [
        "ĠA",
        "bout"
      ],
      [
        "as",
        "ing"
      ],
      [
        "as",
        "al"
      ],
      [
        "as",
        "one"
      ],
      [
        "ĠSleep",
        "walking"
      ],
      [
        "ĠH",
        "aving"
      ],
      [
        "ĠH",
        "EA"
      ],
      [
        "Ġal",
        "one"
      ],
      [
        "Ġal",
        "ways"
      ],
      [
        "ĠM",
        "ay"
      ],
      [
        "ĠM",
        "ental"
      ],
      [
        "ĠM",
        "ove"
      ],
      [
        "Ġle",
        "g"
      ],
      [
        "Ġsu",
        "ccess"
      ],
      [
        "Ġwith",
        "in"
      ],
      [
        "ag",
        "ery"
      ],
      [
        "ĠC",
        "ult"
      ],
      [
        "ĠC",
        "are"
      ],
      [
        "ĠC",
        "affeine"
      ],
      [
        "ut",
        "r"
      ],
      [
        "ĠD",
        "e"
      ],
      [
        "lo",
        "l"
      ],
      [
        "Ġat",
        "t"
      ],
      [
        "Ġan",
        "sw"
      ],
      [
        "reat",
        "he"
      ],
      [
        "reat",
        "ed"
      ],
      [
        "Ġdis",
        "tin"
      ],
      [
        "ĠY",
        "oga"
      ],
      [
        "ea",
        "k"
      ],
      [
        "Ġsh",
        "ut"
      ],
      [
        "Ġsh",
        "own"
      ],
      [
        "Ġpro",
        "ject"
      ],
      [
        "Ġpro",
        "gress"
      ],
      [
        "ort",
        "unity"
      ],
      [
        "Ġ2",
        "3"
      ],
      [
        "ĠW",
        "ell"
      ],
      [
        "ĠW",
        "ater"
      ],
      [
        "Ġne",
        "ver"
      ],
      [
        "Ġne",
        "xt"
      ],
      [
        "Ġnot",
        "e"
      ],
      [
        "Ġnot",
        "ice"
      ],
      [
        "ĠP",
        "ac"
      ],
      [
        "ĠP",
        "ublic"
      ],
      [
        "ĠP",
        "SG"
      ],
      [
        "ĠN",
        "icotine"
      ],
      [
        "Ġr",
        "it"
      ],
      [
        "ĠE",
        "ating"
      ],
      [
        "ind",
        "ex"
      ],
      [
        "ate",
        "ly"
      ],
      [
        "il",
        "ar"
      ],
      [
        "ĠB",
        "lo"
      ],
      [
        "ĠB",
        "reath"
      ],
      [
        "ĠB",
        "ritish"
      ],
      [
        "ĠO",
        "ver"
      ],
      [
        "Ġde",
        "fic"
      ],
      [
        "Ġde",
        "cre"
      ],
      [
        "Ġfeel",
        "ings"
      ],
      [
        "ĠG",
        "ood"
      ],
      [
        "ĠF",
        "rom"
      ],
      [
        "pe",
        "cts"
      ],
      [
        "ide",
        "red"
      ],
      [
        "Ġse",
        "x"
      ],
      [
        "Ġcom",
        "b"
      ],
      [
        "Ġcom",
        "es"
      ],
      [
        "Ġ3",
        "4"
      ],
      [
        "Ġrel",
        "ations"
      ],
      [
        "ast",
        "er"
      ],
      [
        "Ġme",
        "thod"
      ],
      [
        "rain",
        "ing"
      ],
      [
        "Ġqu",
        "iet"
      ],
      [
        "Ġco",
        "ll"
      ],
      [
        "ĠL",
        "un"
      ],
      [
        "Ġv",
        "ital"
      ],
      [
        "Ġv",
        "alerian"
      ],
      [
        "ne",
        "ys"
      ],
      [
        "Ġpart",
        "ially"
      ],
      [
        "Ġpre",
        "fer"
      ],
      [
        "rap",
        "ies"
      ],
      [
        "Ġbrain",
        "s"
      ],
      [
        "Ġeffect",
        "iven"
      ],
      [
        "ard",
        "s"
      ],
      [
        "Ġbreath",
        "s"
      ],
      [
        "ab",
        "ly"
      ],
      [
        "ab",
        "ility"
      ],
      [
        "Ġfa",
        "ce"
      ],
      [
        "Ġkeep",
        "ing"
      ],
      [
        "Ġres",
        "ources"
      ],
      [
        "Ġno",
        "ises"
      ],
      [
        "row",
        "ing"
      ],
      [
        "Ġar",
        "ousals"
      ],
      [
        "Ġrec",
        "ent"
      ],
      [
        "ĠU",
        "se"
      ],
      [
        "Ġlif",
        "estyle"
      ],
      [
        "lin",
        "ic"
      ],
      [
        "ĠSt",
        "age"
      ],
      [
        "Ġ7",
        "0"
      ],
      [
        "Ġlo",
        "ss"
      ],
      [
        "Ġsupp",
        "ress"
      ],
      [
        "agn",
        "osed"
      ],
      [
        "Ġapp",
        "l"
      ],
      [
        "Ġapp",
        "ropriate"
      ],
      [
        "Ġdri",
        "ve"
      ],
      [
        "tern",
        "al"
      ],
      [
        "Ġalcohol",
        "ic"
      ],
      [
        "led",
        "ge"
      ],
      [
        "Ġun",
        "able"
      ],
      [
        "Ġ201",
        "1"
      ],
      [
        "Ġ201",
        "5"
      ],
      [
        "Ġrisk",
        "s"
      ],
      [
        "Ġcommon",
        "ly"
      ],
      [
        "ign",
        "ed"
      ],
      [
        "Ġclock",
        "s"
      ],
      [
        "Ġtri",
        "als"
      ],
      [
        "Ġph",
        "ones"
      ],
      [
        "Ġph",
        "arm"
      ],
      [
        "Ġ20",
        "05"
      ],
      [
        "Ġrelie",
        "vers"
      ],
      [
        "Ġtra",
        "ck"
      ],
      [
        "Ġtra",
        "um"
      ],
      [
        "Ġresear",
        "chers"
      ],
      [
        "Ġdevelop",
        "ment"
      ],
      [
        "act",
        "ive"
      ],
      [
        "Ġpar",
        "asomnias"
      ],
      [
        "Ġawaken",
        "ed"
      ],
      [
        "Ġdid",
        "n"
      ],
      [
        "Ġevery",
        "one"
      ],
      [
        "ĠCh",
        "ange"
      ],
      [
        "Ġslow",
        "er"
      ],
      [
        "su",
        "ch"
      ],
      [
        "Ġche",
        "m"
      ],
      [
        "Ġgrow",
        "ing"
      ],
      [
        "Ġsupple",
        "ment"
      ],
      [
        "Ġprodu",
        "cts"
      ],
      [
        "Ġexper",
        "ts"
      ],
      [
        "Ġexper",
        "ien"
      ],
      [
        "Ġcons",
        "ider"
      ],
      [
        "Ġcons",
        "idered"
[...]
